{
  "version": "1.0",
  "truncation": null,
  "padding": null,
  "added_tokens": [
    {
      "id": 0,
      "content": "<unk>",
      "single_word": false,
      "lstrip": false,
      "rstrip": false,
      "normalized": false,
      "special": true
    },
    {
      "id": 1,
      "content": "<s>",
      "single_word": false,
      "lstrip": false,
      "rstrip": false,
      "normalized": false,
      "special": true
    },
    {
      "id": 2,
      "content": "</s>",
      "single_word": false,
      "lstrip": false,
      "rstrip": false,
      "normalized": false,
      "special": true
    },
    {
      "id": 3,
      "content": "<pad>",
      "single_word": false,
      "lstrip": false,
      "rstrip": false,
      "normalized": false,
      "special": true
    }
  ],
  "normalizer": {
    "type": "NFKC"
  },
  "pre_tokenizer": {
    "type": "ByteLevel",
    "add_prefix_space": false,
    "trim_offsets": true,
    "use_regex": true
  },
  "post_processor": null,
  "decoder": {
    "type": "ByteLevel",
    "add_prefix_space": true,
    "trim_offsets": true,
    "use_regex": true
  },
  "model": {
    "type": "BPE",
    "dropout": null,
    "unk_token": "<unk>",
    "continuing_subword_prefix": null,
    "end_of_word_suffix": null,
    "fuse_unk": false,
    "byte_fallback": false,
    "ignore_merges": false,
    "vocab": {
      "<unk>": 0,
      "<s>": 1,
      "</s>": 2,
      "<pad>": 3,
      "!": 4,
      "\"": 5,
      "#": 6,
      "$": 7,
      "%": 8,
      "&": 9,
      "'": 10,
      "(": 11,
      ")": 12,
      "*": 13,
      "+": 14,
      ",": 15,
      "-": 16,
      ".": 17,
      "/": 18,
      "0": 19,
      "1": 20,
      "2": 21,
      "3": 22,
      "4": 23,
      "5": 24,
      "6": 25,
      "7": 26,
      "8": 27,
      "9": 28,
      ":": 29,
      ";": 30,
      "<": 31,
      "=": 32,
      ">": 33,
      "?": 34,
      "@": 35,
      "A": 36,
      "B": 37,
      "C": 38,
      "D": 39,
      "E": 40,
      "F": 41,
      "G": 42,
      "H": 43,
      "I": 44,
      "J": 45,
      "K": 46,
      "L": 47,
      "M": 48,
      "N": 49,
      "O": 50,
      "P": 51,
      "Q": 52,
      "R": 53,
      "S": 54,
      "T": 55,
      "U": 56,
      "V": 57,
      "W": 58,
      "X": 59,
      "Y": 60,
      "Z": 61,
      "[": 62,
      "\\": 63,
      "]": 64,
      "^": 65,
      "_": 66,
      "`": 67,
      "a": 68,
      "b": 69,
      "c": 70,
      "d": 71,
      "e": 72,
      "f": 73,
      "g": 74,
      "h": 75,
      "i": 76,
      "j": 77,
      "k": 78,
      "l": 79,
      "m": 80,
      "n": 81,
      "o": 82,
      "p": 83,
      "q": 84,
      "r": 85,
      "s": 86,
      "t": 87,
      "u": 88,
      "v": 89,
      "w": 90,
      "x": 91,
      "y": 92,
      "z": 93,
      "{": 94,
      "|": 95,
      "}": 96,
      "~": 97,
      "¡": 98,
      "¢": 99,
      "£": 100,
      "¤": 101,
      "¥": 102,
      "¦": 103,
      "§": 104,
      "¨": 105,
      "©": 106,
      "ª": 107,
      "«": 108,
      "¬": 109,
      "®": 110,
      "¯": 111,
      "°": 112,
      "±": 113,
      "²": 114,
      "³": 115,
      "´": 116,
      "µ": 117,
      "¶": 118,
      "·": 119,
      "¸": 120,
      "¹": 121,
      "º": 122,
      "»": 123,
      "¼": 124,
      "½": 125,
      "¾": 126,
      "¿": 127,
      "À": 128,
      "Á": 129,
      "Â": 130,
      "Ã": 131,
      "Ä": 132,
      "Å": 133,
      "Æ": 134,
      "Ç": 135,
      "È": 136,
      "É": 137,
      "Ê": 138,
      "Ë": 139,
      "Ì": 140,
      "Í": 141,
      "Î": 142,
      "Ï": 143,
      "Ð": 144,
      "Ñ": 145,
      "Ò": 146,
      "Ó": 147,
      "Ô": 148,
      "Õ": 149,
      "Ö": 150,
      "×": 151,
      "Ø": 152,
      "Ù": 153,
      "Ú": 154,
      "Û": 155,
      "Ü": 156,
      "Ý": 157,
      "Þ": 158,
      "ß": 159,
      "à": 160,
      "á": 161,
      "â": 162,
      "ã": 163,
      "ä": 164,
      "å": 165,
      "æ": 166,
      "ç": 167,
      "è": 168,
      "é": 169,
      "ê": 170,
      "ë": 171,
      "ì": 172,
      "í": 173,
      "î": 174,
      "ï": 175,
      "ð": 176,
      "ñ": 177,
      "ò": 178,
      "ó": 179,
      "ô": 180,
      "õ": 181,
      "ö": 182,
      "÷": 183,
      "ø": 184,
      "ù": 185,
      "ú": 186,
      "û": 187,
      "ü": 188,
      "ý": 189,
      "þ": 190,
      "ÿ": 191,
      "Ā": 192,
      "ā": 193,
      "Ă": 194,
      "ă": 195,
      "Ą": 196,
      "ą": 197,
      "Ć": 198,
      "ć": 199,
      "Ĉ": 200,
      "ĉ": 201,
      "Ċ": 202,
      "ċ": 203,
      "Č": 204,
      "č": 205,
      "Ď": 206,
      "ď": 207,
      "Đ": 208,
      "đ": 209,
      "Ē": 210,
      "ē": 211,
      "Ĕ": 212,
      "ĕ": 213,
      "Ė": 214,
      "ė": 215,
      "Ę": 216,
      "ę": 217,
      "Ě": 218,
      "ě": 219,
      "Ĝ": 220,
      "ĝ": 221,
      "Ğ": 222,
      "ğ": 223,
      "Ġ": 224,
      "ġ": 225,
      "Ģ": 226,
      "ģ": 227,
      "Ĥ": 228,
      "ĥ": 229,
      "Ħ": 230,
      "ħ": 231,
      "Ĩ": 232,
      "ĩ": 233,
      "Ī": 234,
      "ī": 235,
      "Ĭ": 236,
      "ĭ": 237,
      "Į": 238,
      "į": 239,
      "İ": 240,
      "ı": 241,
      "Ĳ": 242,
      "ĳ": 243,
      "Ĵ": 244,
      "ĵ": 245,
      "Ķ": 246,
      "ķ": 247,
      "ĸ": 248,
      "Ĺ": 249,
      "ĺ": 250,
      "Ļ": 251,
      "ļ": 252,
      "Ľ": 253,
      "ľ": 254,
      "Ŀ": 255,
      "ŀ": 256,
      "Ł": 257,
      "ł": 258,
      "Ń": 259,
      "Ġt": 260,
      "he": 261,
      "Ġa": 262,
      "in": 263,
      "er": 264,
      "on": 265,
      "Ġthe": 266,
      "re": 267,
      "Ġo": 268,
      "an": 269,
      "at": 270,
      "en": 271,
      "Ġs": 272,
      "ed": 273,
      "is": 274,
      "or": 275,
      "al": 276,
      "es": 277,
      "Ġw": 278,
      "it": 279,
      "Ġc": 280,
      "Ġof": 281,
      "ar": 282,
      "nd": 283,
      "Ġin": 284,
      "Ġf": 285,
      "Ġb": 286,
      "ic": 287,
      "Ġp": 288,
      "Ġand": 289,
      "ing": 290,
      "as": 291,
      "ion": 292,
      "ro": 293,
      "Ġm": 294,
      "le": 295,
      "Ġto": 296,
      "Ġd": 297,
      "ĠA": 298,
      "ou": 299,
      "Ġh": 300,
      "ent": 301,
      "ĠS": 302,
      "ĠC": 303,
      "il": 304,
      "st": 305,
      "ĠT": 306,
      "om": 307,
      "Ġre": 308,
      "Ġ1": 309,
      "el": 310,
      "ct": 311,
      "ol": 312,
      "am": 313,
      "ĠB": 314,
      "Ġl": 315,
      "Ġ(": 316,
      "Ġn": 317,
      "Ġe": 318,
      "Ġth": 319,
      "ĠM": 320,
      "ur": 321,
      "ad": 322,
      "ch": 323,
      "et": 324,
      "ation": 325,
      "iv": 326,
      "us": 327,
      "ly": 328,
      "id": 329,
      "ce": 330,
      "im": 331,
      "ig": 332,
      "ot": 333,
      "ers": 334,
      "ir": 335,
      "ĠP": 336,
      "Ġfor": 337,
      "Ġis": 338,
      "ut": 339,
      "ĠI": 340,
      "Ġg": 341,
      "Ġas": 342,
      "Ġon": 343,
      "Ġwas": 344,
      "ist": 345,
      "Ġbe": 346,
      "ra": 347,
      "ĠH": 348,
      "ow": 349,
      "ith": 350,
      "ay": 351,
      "ul": 352,
      "ĠThe": 353,
      "Ġ2": 354,
      "ter": 355,
      "Ġ19": 356,
      "ĠR": 357,
      "em": 358,
      "un": 359,
      "her": 360,
      "ĠD": 361,
      "Ġst": 362,
      "th": 363,
      "ĠF": 364,
      "Ġwith": 365,
      "ĠG": 366,
      "ĠL": 367,
      "Ġal": 368,
      "Ġby": 369,
      "and": 370,
      "os": 371,
      "ver": 372,
      "um": 373,
      "Ġcon": 374,
      "ĠW": 375,
      "ĠE": 376,
      "Ġan": 377,
      "ĠN": 378,
      "âĢ": 379,
      "ag": 380,
      "Ġwh": 381,
      "'s": 382,
      "rom": 383,
      "op": 384,
      "00": 385,
      "Ġthat": 386,
      "ri": 387,
      "est": 388,
      "ac": 389,
      "od": 390,
      "Ġat": 391,
      "ĠJ": 392,
      "âĢĵ": 393,
      "av": 394,
      "Ġde": 395,
      "Ġpro": 396,
      "ian": 397,
      "Ġv": 398,
      "Ġcom": 399,
      "ain": 400,
      "Ġ\"": 401,
      "Ġfrom": 402,
      "ab": 403,
      "if": 404,
      "res": 405,
      "ity": 406,
      "ies": 407,
      "Ġit": 408,
      "Ġor": 409,
      "oc": 410,
      "ĠO": 411,
      "Ġhe": 412,
      "pe": 413,
      "ate": 414,
      "Ġare": 415,
      "ud": 416,
      "ort": 417,
      "all": 418,
      "up": 419,
      "Ġse": 420,
      "ia": 421,
      "art": 422,
      "ill": 423,
      "ich": 424,
      "qu": 425,
      "Ġex": 426,
      "ĠU": 427,
      "ber": 428,
      "ld": 429,
      "ant": 430,
      "ew": 431,
      "igh": 432,
      "ess": 433,
      "ore": 434,
      "ĠK": 435,
      "ard": 436,
      "ub": 437,
      "Ġr": 438,
      "ment": 439,
      "se": 440,
      "ak": 441,
      "ial": 442,
      "ive": 443,
      "Ġhis": 444,
      "ap": 445,
      "ated": 446,
      "ip": 447,
      "ĠĊ": 448,
      "nt": 449,
      "ical": 450,
      "ish": 451,
      "Ġpl": 452,
      "og": 453,
      "ge": 454,
      "ĠIn": 455,
      "ary": 456,
      "mer": 457,
      "Ġch": 458,
      "end": 459,
      "ere": 460,
      "ov": 461,
      "ast": 462,
      "ction": 463,
      "19": 464,
      "ine": 465,
      "ug": 466,
      "The": 467,
      "ĠSt": 468,
      "ost": 469,
      "our": 470,
      "Ġwhich": 471,
      "ure": 472,
      "Ġ20": 473,
      "ĠâĢĵ": 474,
      "ĠCh": 475,
      "und": 476,
      "ong": 477,
      "ell": 478,
      "ther": 479,
      "==": 480,
      "ust": 481,
      "Ġwere": 482,
      "ord": 483,
      "so": 484,
      "uc": 485,
      "Ġus": 486,
      "ame": 487,
      "Ġle": 488,
      "ear": 489,
      "cl": 490,
      "ran": 491,
      "pt": 492,
      "ight": 493,
      "),": 494,
      "Ġcomp": 495,
      "ire": 496,
      "Ġk": 497,
      "rit": 498,
      "ave": 499,
      "Ġnot": 500,
      "ks": 501,
      "fer": 502,
      "ous": 503,
      "Ġ200": 504,
      "Ġalso": 505,
      "ĠV": 506,
      "ry": 507,
      "ition": 508,
      "Ġsh": 509,
      "pl": 510,
      "Ġar": 511,
      "ue": 512,
      "Ġun": 513,
      "per": 514,
      "port": 515,
      "ff": 516,
      "ie": 517,
      "iz": 518,
      "ect": 519,
      "ult": 520,
      "ican": 521,
      "ign": 522,
      "ass": 523,
      "ome": 524,
      "tern": 525,
      "Ġy": 526,
      "ations": 527,
      "ide": 528,
      "Ġcont": 529,
      "are": 530,
      "man": 531,
      "Ġint": 532,
      "Ġhas": 533,
      "ĠUn": 534,
      "age": 535,
      "ib": 536,
      "ces": 537,
      "Ġcl": 538,
      "irst": 539,
      "Ġhad": 540,
      "ory": 541,
      "ence": 542,
      "ph": 543,
      "Ġad": 544,
      "Ġhave": 545,
      "ount": 546,
      "ang": 547,
      "Ġwhe": 548,
      "ack": 549,
      "Ġits": 550,
      "Ġtheir": 551,
      "ĠAl": 552,
      "ng": 553,
      "ric": 554,
      "ond": 555,
      "Ġac": 556,
      "Ġ201": 557,
      "ater": 558,
      "ally": 559,
      "ree": 560,
      "Ġres": 561,
      "Ġab": 562,
      "Ġpart": 563,
      "Ġfirst": 564,
      "Ġwor": 565,
      "Ġbut": 566,
      "ke": 567,
      "ĠTh": 568,
      "ates": 569,
      "own": 570,
      "land": 571,
      "hed": 572,
      "uch": 573,
      "Ġte": 574,
      "fter": 575,
      ").": 576,
      "ĠHe": 577,
      "erv": 578,
      "act": 579,
      "Ġap": 580,
      "ach": 581,
      "ĠĠ": 582,
      "ions": 583,
      "ens": 584,
      "ould": 585,
      "ime": 586,
      "clud": 587,
      "wo": 588,
      "out": 589,
      "Ġro": 590,
      "ice": 591,
      "ĠIt": 592,
      "Ġall": 593,
      "ational": 594,
      "Ġ18": 595,
      "ok": 596,
      "ace": 597,
      "Ġper": 598,
      "Ġman": 599,
      "Ġother": 600,
      "In": 601,
      "over": 602,
      "Ġone": 603,
      "ound": 604,
      "ec": 605,
      "Ġ3": 606,
      "merican": 607,
      "Ġdis": 608,
      "ep": 609,
      "oll": 610,
      "Ġthis": 611,
      "ĠAr": 612,
      "Ġplay": 613,
      "ited": 614,
      "Ġ199": 615,
      "Ġwho": 616,
      "te": 617,
      "Ġim": 618,
      "ely": 619,
      "ress": 620,
      "ile": 621,
      "Ġbec": 622,
      "Ġen": 623,
      "ru": 624,
      "ugh": 625,
      "ne": 626,
      "Ġinclud": 627,
      "gh": 628,
      "Ġbeen": 629,
      "Ġj": 630,
      "able": 631,
      "ĠY": 632,
      "ors": 633,
      "Ġag": 634,
      "ents": 635,
      "ts": 636,
      "Ġcan": 637,
      "ubl": 638,
      "Ġrec": 639,
      "orm": 640,
      "===": 641,
      "aw": 642,
      "Ġcomm": 643,
      "amp": 644,
      "vel": 645,
      "Ġsc": 646,
      "Ġyear": 647,
      "ite": 648,
      "ath": 649,
      "uring": 650,
      "we": 651,
      "ade": 652,
      "ons": 653,
      "les": 654,
      "Ġtwo": 655,
      "Ġpre": 656,
      "ase": 657,
      "Ġdes": 658,
      "ark": 659,
      "ĠAmerican": 660,
      "ics": 661,
      "wn": 662,
      "old": 663,
      "Ġsp": 664,
      "ob": 665,
      "oin": 666,
      "ied": 667,
      "one": 668,
      "ose": 669,
      "ough": 670,
      "als": 671,
      "olog": 672,
      "20": 673,
      "ivers": 674,
      "ance": 675,
      "Ġthey": 676,
      "ms": 677,
      "ury": 678,
      "ild": 679,
      "du": 680,
      "Ġev": 681,
      "Ġafter": 682,
      "ted": 683,
      "orn": 684,
      "ased": 685,
      "iss": 686,
      "eg": 687,
      "Ġinto": 688,
      "Ġsy": 689,
      "Ġcent": 690,
      "ron": 691,
      "Ġspe": 692,
      "Ġover": 693,
      "oy": 694,
      "ings": 695,
      "Ġ198": 696,
      "ans": 697,
      "Ġused": 698,
      "Ġ4": 699,
      "ood": 700,
      "Ġcons": 701,
      "cess": 702,
      "ind": 703,
      "Ġmore": 704,
      "Ġsuch": 705,
      "Ġele": 706,
      "ool": 707,
      "ft": 708,
      "Ġmost": 709,
      "ail": 710,
      "Ġout": 711,
      "Ġgro": 712,
      "Ġher": 713,
      "rans": 714,
      "Ġatt": 715,
      "red": 716,
      "ular": 717,
      "Ġnew": 718,
      "ward": 719,
      "Ġup": 720,
      "ral": 721,
      "ious": 722,
      "Ġact": 723,
      "rough": 724,
      "Ġind": 725,
      "ss": 726,
      "ever": 727,
      "reat": 728,
      "Ġund": 729,
      "Ġbet": 730,
      "urn": 731,
      "ah": 732,
      "ener": 733,
      "ren": 734,
      "rib": 735,
      "eop": 736,
      "ram": 737,
      "Ġrel": 738,
      "Ġreg": 739,
      "aus": 740,
      "ĠCom": 741,
      "ism": 742,
      "Ġoff": 743,
      "io": 744,
      "Ġme": 745,
      "oth": 746,
      "Ġtime": 747,
      "ember": 748,
      "Ġra": 749,
      "gan": 750,
      "ĠNew": 751,
      "Ġkn": 752,
      "outh": 753,
      "ee": 754,
      "ences": 755,
      "Ġform": 756,
      "ince": 757,
      "duc": 758,
      "ween": 759,
      "Ġ197": 760,
      "ished": 761,
      "ars": 762,
      "oh": 763,
      "Ġunder": 764,
      "hip": 765,
      "ists": 766,
      "Ġpol": 767,
      "Ġ5": 768,
      "Ġthan": 769,
      "ict": 770,
      "ex": 771,
      "Ġfil": 772,
      "ball": 773,
      "Ġnum": 774,
      "eople": 775,
      "Ġwould": 776,
      "ities": 777,
      "Ġonly": 778,
      "ual": 779,
      "Ġpr": 780,
      "att": 781,
      "Ġwhen": 782,
      "Ġsub": 783,
      "oot": 784,
      "Ġsup": 785,
      "ĠEng": 786,
      "li": 787,
      "Ġbetween": 788,
      "form": 789,
      "Ġam": 790,
      "ision": 791,
      "ific": 792,
      "rad": 793,
      "Ġsome": 794,
      "ative": 795,
      "ames": 796,
      "ĠMar": 797,
      "chool": 798,
      "Ġear": 799,
      "way": 800,
      "che": 801,
      "Ġco": 802,
      "Ġsec": 803,
      "ten": 804,
      "18": 805,
      "lish": 806,
      "eb": 807,
      "inal": 808,
      "ĠAn": 809,
      "Ġass": 810,
      "ĠUnited": 811,
      "ĠThis": 812,
      "stem": 813,
      "pro": 814,
      "Ġcol": 815,
      "cial": 816,
      "Ġhim": 817,
      "Ġtra": 818,
      "Ġserv": 819,
      "ake": 820,
      "Ġinter": 821,
      "Ġqu": 822,
      "ve": 823,
      "ced": 824,
      "ix": 825,
      "Ġwork": 826,
      "ton": 827,
      "overn": 828,
      "Ġpubl": 829,
      "Ġso": 830,
      "ident": 831,
      "Ġph": 832,
      "ys": 833,
      "ered": 834,
      "ins": 835,
      "ĠDe": 836,
      "az": 837,
      "Ġlar": 838,
      "ollow": 839,
      "iet": 840,
      "ily": 841,
      "Ġdef": 842,
      "Ġfl": 843,
      "ating": 844,
      "Ġbo": 845,
      "Ġtrans": 846,
      "Ġduring": 847,
      "Ġloc": 848,
      "ern": 849,
      "\".": 850,
      "Ġyears": 851,
      "Ġpop": 852,
      "cc": 853,
      "Ġfound": 854,
      "Ġthere": 855,
      "Ġthrough": 856,
      "Ġrem": 857,
      "ines": 858,
      "orth": 859,
      "Ġ196": 860,
      "eld": 861,
      "pos": 862,
      "ick": 863,
      "erman": 864,
      "ale": 865,
      "Ġmod": 866,
      "Ġpres": 867,
      "velop": 868,
      "aj": 869,
      "hen": 870,
      "cted": 871,
      "Ġop": 872,
      "ork": 873,
      "Ġcount": 874,
      "Ġter": 875,
      "ĠCol": 876,
      "Ġwhere": 877,
      "oun": 878,
      "Ġ6": 879,
      "Ġ-": 880,
      "iversity": 881,
      "ĠSe": 882,
      "Ġagain": 883,
      "Ġest": 884,
      "emb": 885,
      "ject": 886,
      "cent": 887,
      "ĠLe": 888,
      "Ġdist": 889,
      "Ġbu": 890,
      "ĠCon": 891,
      "000": 892,
      "ll": 893,
      "Ġabout": 894,
      "ife": 895,
      "Ġcall": 896,
      "uro": 897,
      "\",": 898,
      "Ġmay": 899,
      "ution": 900,
      "Ġmany": 901,
      "ium": 902,
      "fore": 903,
      "Ġbl": 904,
      "Ġinc": 905,
      "Ġset": 906,
      "tain": 907,
      "Ġpeople": 908,
      "Ġpos": 909,
      "ĠPro": 910,
      "ower": 911,
      "Ġknown": 912,
      "Ġstud": 913,
      "ik": 914,
      "Re": 915,
      "ferences": 916,
      "Ġsystem": 917,
      "ann": 918,
      "round": 919,
      "ĠSh": 920,
      "Ġinv": 921,
      "Ġacc": 922,
      "ĠAp": 923,
      "ures": 924,
      "ason": 925,
      "Ġfollow": 926,
      "ĠAt": 927,
      "Ġchar": 928,
      "Ġprov": 929,
      "Ġdo": 930,
      "Ġthem": 931,
      "Ġinst": 932,
      "ĠBrit": 933,
      "Ġend": 934,
      "Ġmet": 935,
      "Ġthree": 936,
      "raph": 937,
      "Ġdif": 938,
      "ments": 939,
      "ĠInd": 940,
      "Ġ===": 941,
      "ĠAs": 942,
      "ĠZ": 943,
      "eat": 944,
      "very": 945,
      "con": 946,
      "Ġwrit": 947,
      "ient": 948,
      "inn": 949,
      "Ġlater": 950,
      "owever": 951,
      "mp": 952,
      "orld": 953,
      "ĠSc": 954,
      "Ġuse": 955,
      "Ġdevelop": 956,
      "Ġ7": 957,
      "Ġmus": 958,
      "Ġshe": 959,
      "Ġmade": 960,
      "air": 961,
      "Ġgener": 962,
      "els": 963,
      "ock": 964,
      "ement": 965,
      "cept": 966,
      "Ġthen": 967,
      "rist": 968,
      "Ġbeing": 969,
      "ĠSp": 970,
      "Ġvar": 971,
      "any": 972,
      "ield": 973,
      ".\"": 974,
      "Ġmov": 975,
      "cy": 976,
      "istory": 977,
      "ck": 978,
      "ĠGerman": 979,
      "Ġwell": 980,
      "Ġed": 981,
      "uss": 982,
      "Ġart": 983,
      "ĠAust": 984,
      "der": 985,
      "Ġret": 986,
      "ĠStates": 987,
      "its": 988,
      "Ġob": 989,
      "Ġaut": 990,
      "Ã©": 991,
      "Ġadd": 992,
      "Ġbecame": 993,
      "ohn": 994,
      "ise": 995,
      "eries": 996,
      "Ġent": 997,
      "ctions": 998,
      "Ġdec": 999,
      "Ġincluding": 1000,
      "Ġnumber": 1001,
      "ĠIs": 1002,
      "ized": 1003,
      "erson": 1004,
      "200": 1005,
      "ural": 1006,
      "ually": 1007,
      "ians": 1008,
      "Ġgovern": 1009,
      "ĠBl": 1010,
      "ause": 1011,
      "ple": 1012,
      "Ġwhile": 1013,
      "Ġno": 1014,
      "Ġsign": 1015,
      "Ġsur": 1016,
      "fl": 1017,
      "Ġ194": 1018,
      "ier": 1019,
      "inist": 1020,
      "ĠUniversity": 1021,
      "ĠWar": 1022,
      "Ġgroup": 1023,
      "Ġ17": 1024,
      "Ġcar": 1025,
      "Ġmain": 1026,
      "Ġsecond": 1027,
      "ĠRe": 1028,
      "ootball": 1029,
      "ived": 1030,
      "other": 1031,
      "Ġhigh": 1032,
      "ology": 1033,
      "References": 1034,
      "Ġdire": 1035,
      "ĠCl": 1036,
      "Ġsing": 1037,
      "ank": 1038,
      "angu": 1039,
      "Ġcap": 1040,
      "Ġboth": 1041,
      "ley": 1042,
      "ĠWorld": 1043,
      "elf": 1044,
      "Ġmed": 1045,
      "Ġfilm": 1046,
      "Ġem": 1047,
      "Ġthese": 1048,
      "Ġ195": 1049,
      "oman": 1050,
      "Ġlin": 1051,
      "iew": 1052,
      "ible": 1053,
      "ically": 1054,
      "ĠCan": 1055,
      "ash": 1056,
      "ax": 1057,
      "Ġne": 1058,
      "ternal": 1059,
      "iver": 1060,
      "the": 1061,
      "ues": 1062,
      "Ġlead": 1063,
      "Ġteam": 1064,
      "Ġcalled": 1065,
      "ina": 1066,
      "Ġrep": 1067,
      "ĠJohn": 1068,
      "Ġorig": 1069,
      "Ġmon": 1070,
      "Ġext": 1071,
      "Ġcentury": 1072,
      "ays": 1073,
      "imes": 1074,
      "ty": 1075,
      "urope": 1076,
      "Ġprodu": 1077,
      "Ġ8": 1078,
      "Ġfam": 1079,
      "ĠFor": 1080,
      "til": 1081,
      "Ġrecord": 1082,
      "ĠAd": 1083,
      "ages": 1084,
      "Ġsm": 1085,
      "ants": 1086,
      "ved": 1087,
      "Ġappe": 1088,
      "ting": 1089,
      "enn": 1090,
      "Ġconst": 1091,
      "ĠFran": 1092,
      "ague": 1093,
      "Ġfour": 1094,
      "Ġpolit": 1095,
      "Ex": 1096,
      "Ġrele": 1097,
      "ather": 1098,
      "yp": 1099,
      "Ġcre": 1100,
      "Ġ.": 1101,
      "Ġoper": 1102,
      "Ġeff": 1103,
      "ĠEnglish": 1104,
      "ute": 1105,
      "ĠAf": 1106,
      "ograph": 1107,
      "Ġexp": 1108,
      "Ġagainst": 1109,
      "led": 1110,
      "ract": 1111,
      "eter": 1112,
      "ajor": 1113,
      "urch": 1114,
      "ional": 1115,
      "Ġ15": 1116,
      "Ġbro": 1117,
      "ober": 1118,
      "ful": 1119,
      "ouse": 1120,
      "Ġany": 1121,
      "my": 1122,
      "ility": 1123,
      "ulation": 1124,
      "lex": 1125,
      "Ġsever": 1126,
      "gram": 1127,
      "hes": 1128,
      "Ġbefore": 1129,
      "ired": 1130,
      "Ġ10": 1131,
      "Ġair": 1132,
      "ĠEurope": 1133,
      "Ġown": 1134,
      "Ġcity": 1135,
      "ike": 1136,
      "ĠBritish": 1137,
      "ĠOr": 1138,
      "arch": 1139,
      "Ġearly": 1140,
      "ives": 1141,
      "ĠComm": 1142,
      "ctor": 1143,
      "ris": 1144,
      "Ġcontin": 1145,
      "ird": 1146,
      "ĠPh": 1147,
      "Ġspec": 1148,
      "ĠAm": 1149,
      "Ġsim": 1150,
      "199": 1151,
      "duced": 1152,
      "Ġbel": 1153,
      "ternational": 1154,
      "vent": 1155,
      "Ġestab": 1156,
      "Ġlong": 1157,
      "Ġworld": 1158,
      "Ġresult": 1159,
      "ae": 1160,
      "ven": 1161,
      "ĠCar": 1162,
      "Ġname": 1163,
      "ey": 1164,
      "Ġ16": 1165,
      "Ġstate": 1166,
      "Ġ9": 1167,
      "Ġsuc": 1168,
      "Ġdesign": 1169,
      "Ġuntil": 1170,
      "hem": 1171,
      "gest": 1172,
      "ared": 1173,
      "Ġsame": 1174,
      "ĠChrist": 1175,
      "ange": 1176,
      "Ġpartic": 1177,
      "to": 1178,
      "ital": 1179,
      "ĠSouth": 1180,
      "Ġschool": 1181,
      "ger": 1182,
      "istor": 1183,
      "ene": 1184,
      "Ġdiffer": 1185,
      "aid": 1186,
      "rid": 1187,
      "Ġcharact": 1188,
      "son": 1189,
      "Ġwe": 1190,
      "Ġback": 1191,
      "ĠQ": 1192,
      "âĢĶ": 1193,
      "rict": 1194,
      "ĠII": 1195,
      "ble": 1196,
      "ĠOn": 1197,
      "oci": 1198,
      "Ġshow": 1199,
      "rop": 1200,
      "Ġstr": 1201,
      "by": 1202,
      "Ġseries": 1203,
      "ica": 1204,
      "Ġlangu": 1205,
      "Ġlinks": 1206,
      "Ä±": 1207,
      "Ġoffic": 1208,
      "ĠBo": 1209,
      "Ġwill": 1210,
      "Ġ193": 1211,
      "Ġfin": 1212,
      "for": 1213,
      "aking": 1214,
      "bum": 1215,
      "oint": 1216,
      "Ġocc": 1217,
      "ĠAustral": 1218,
      "Ġsince": 1219,
      "Ġdisc": 1220,
      "iving": 1221,
      "Ġdep": 1222,
      "Ġpublic": 1223,
      "atic": 1224,
      "Ġsupport": 1225,
      "Ġseason": 1226,
      "Ġremain": 1227,
      "Ġfootball": 1228,
      "Ġseveral": 1229,
      "ission": 1230,
      "Ġarea": 1231,
      "chn": 1232,
      "ined": 1233,
      "hor": 1234,
      "ull": 1235,
      "Ġwar": 1236,
      "illion": 1237,
      "ĠĠĠĠ": 1238,
      "Ġlaw": 1239,
      "Ġdeath": 1240,
      "une": 1241,
      "rench": 1242,
      "Ġdesc": 1243,
      "ilit": 1244,
      "ross": 1245,
      "Ġmusic": 1246,
      "17": 1247,
      "Ġcould": 1248,
      "External": 1249,
      "amed": 1250,
      "Ġmajor": 1251,
      "ator": 1252,
      "Ġgu": 1253,
      "Ġgovernment": 1254,
      "Ġsl": 1255,
      "yl": 1256,
      "ided": 1257,
      "ret": 1258,
      "embers": 1259,
      "ets": 1260,
      "ĠNational": 1261,
      "iod": 1262,
      "Ġprogram": 1263,
      "ged": 1264,
      "Ġdr": 1265,
      "let": 1266,
      "ĠAb": 1267,
      "Ġeach": 1268,
      "though": 1269,
      "Ã¼": 1270,
      "Ġsmall": 1271,
      "Ġtr": 1272,
      "Ġmat": 1273,
      "ued": 1274,
      "anu": 1275,
      "ĠCanad": 1276,
      "Ġoften": 1277,
      "gy": 1278,
      "ĠPl": 1279,
      "Ġcommun": 1280,
      "21": 1281,
      "Ġconsid": 1282,
      "Ġmin": 1283,
      "ai": 1284,
      "por": 1285,
      "ony": 1286,
      "iam": 1287,
      "Ġ'": 1288,
      "ring": 1289,
      "Ġgo": 1290,
      "Ġmar": 1291,
      "ĠCent": 1292,
      "resent": 1293,
      "omen": 1294,
      "ience": 1295,
      "Ġfeat": 1296,
      "ott": 1297,
      "10": 1298,
      "ature": 1299,
      "ised": 1300,
      "Ġland": 1301,
      "Ġorgan": 1302,
      "ĠWh": 1303,
      "Ġcur": 1304,
      "au": 1305,
      "Ġcolle": 1306,
      "Ġclass": 1307,
      "Ġcontro": 1308,
      "ĠKing": 1309,
      "rand": 1310,
      "Ġlife": 1311,
      "ham": 1312,
      "med": 1313,
      "ĠMay": 1314,
      "ugust": 1315,
      "Ġ,": 1316,
      "Ġins": 1317,
      "Ġcommon": 1318,
      "ster": 1319,
      "conom": 1320,
      "Ġsuccess": 1321,
      "amb": 1322,
      "Ġrun": 1323,
      "Ġgame": 1324,
      "itions": 1325,
      "Ġpar": 1326,
      "Ġif": 1327,
      "ĠMus": 1328,
      "yn": 1329,
      "ove": 1330,
      "ices": 1331,
      "Ġalbum": 1332,
      "Ġbecause": 1333,
      "Ġant": 1334,
      "Ġnear": 1335,
      "Ġann": 1336,
      "ruct": 1337,
      "ĠGe": 1338,
      "Ġ12": 1339,
      "ides": 1340,
      "ively": 1341,
      "com": 1342,
      "ified": 1343,
      "ĠFrench": 1344,
      "ording": 1345,
      "omet": 1346,
      "rent": 1347,
      "ĠHowever": 1348,
      "Ġformer": 1349,
      "ĠThey": 1350,
      "ries": 1351,
      "ped": 1352,
      "Ġcountry": 1353,
      "ample": 1354,
      "tle": 1355,
      "ane": 1356,
      "vers": 1357,
      "inc": 1358,
      "ĠBar": 1359,
      "ze": 1360,
      "Ġbuild": 1361,
      "que": 1362,
      "Ġincre": 1363,
      "Ġinclude": 1364,
      "ele": 1365,
      "Ġdifferent": 1366,
      "Ġdid": 1367,
      "ner": 1368,
      "Ġeng": 1369,
      "198": 1370,
      "Ġref": 1371,
      "eng": 1372,
      "Ġbased": 1373,
      "Ġperson": 1374,
      "Ġleg": 1375,
      "ode": 1376,
      "ried": 1377,
      "Ġlarge": 1378,
      "ĠNorth": 1379,
      "ĠShe": 1380,
      "ended": 1381,
      "ior": 1382,
      "iety": 1383,
      "ival": 1384,
      "af": 1385,
      "Ġfollowing": 1386,
      "ĠPr": 1387,
      "ox": 1388,
      "row": 1389,
      "ured": 1390,
      "ights": 1391,
      "ĠAugust": 1392,
      "ĠYork": 1393,
      "Ġaround": 1394,
      "Ġappro": 1395,
      "Ġrece": 1396,
      "attle": 1397,
      "Ġopen": 1398,
      "arm": 1399,
      "Ġtrad": 1400,
      "ĠAll": 1401,
      "pect": 1402,
      "aced": 1403,
      "Ġbegan": 1404,
      "Ġreturn": 1405,
      "16": 1406,
      "Ġperiod": 1407,
      "Ġstart": 1408,
      "aving": 1409,
      "15": 1410,
      "Ġsoc": 1411,
      "ports": 1412,
      "Ġprom": 1413,
      "ĠAnd": 1414,
      "ĠMan": 1415,
      "Ġvers": 1416,
      "ĠPar": 1417,
      "ament": 1418,
      "Ġallow": 1419,
      "Ġequ": 1420,
      "dom": 1421,
      "Ġrequ": 1422,
      "aim": 1423,
      "Ġhum": 1424,
      "Ġcult": 1425,
      "ization": 1426,
      "Ġpass": 1427,
      "ration": 1428,
      "Ġpo": 1429,
      "ĠColle": 1430,
      "ung": 1431,
      "Ã¡": 1432,
      "Ġeffect": 1433,
      "ths": 1434,
      "Ġval": 1435,
      "par": 1436,
      "ĠSchool": 1437,
      "Ġsong": 1438,
      "ĠUS": 1439,
      "ĠCount": 1440,
      "wards": 1441,
      "Ġgames": 1442,
      "Ġhead": 1443,
      "Ġpopulation": 1444,
      "ĠBe": 1445,
      "isc": 1446,
      "Ġplace": 1447,
      "vision": 1448,
      "Ġfamily": 1449,
      "Ġ14": 1450,
      "..": 1451,
      "ril": 1452,
      "ently": 1453,
      "oph": 1454,
      "Ġbas": 1455,
      "ĠNov": 1456,
      "Ġmembers": 1457,
      "ĠCity": 1458,
      "ĠAss": 1459,
      "Ġtele": 1460,
      "raft": 1461,
      "ius": 1462,
      "Ġcor": 1463,
      "Ġalong": 1464,
      "Ġplayer": 1465,
      "Ġdiv": 1466,
      "ont": 1467,
      "anuary": 1468,
      "iven": 1469,
      "ĠJu": 1470,
      "ality": 1471,
      "rew": 1472,
      "Ġimport": 1473,
      "Ġtown": 1474,
      "Ġ&": 1475,
      "Ġpower": 1476,
      "ards": 1477,
      "ert": 1478,
      "ĠCal": 1479,
      "Ġexample": 1480,
      "ves": 1481,
      "ately": 1482,
      "ilt": 1483,
      "12": 1484,
      "ilitary": 1485,
      "Ġlit": 1486,
      "Ġ13": 1487,
      "lished": 1488,
      "Ġinfl": 1489,
      "Ġfun": 1490,
      "Ġchild": 1491,
      "alth": 1492,
      "Ġrest": 1493,
      "ales": 1494,
      "ĠWest": 1495,
      "estern": 1496,
      "Ġhome": 1497,
      "Ġnow": 1498,
      "Ġdue": 1499,
      "Ġcare": 1500,
      "Ġthough": 1501,
      "ĠBro": 1502,
      "Ġwon": 1503,
      "197": 1504,
      "ĠAg": 1505,
      "ript": 1506,
      "Ġstand": 1507,
      "Ġthose": 1508,
      "Ġauthor": 1509,
      "get": 1510,
      "ness": 1511,
      "Ġlike": 1512,
      "ody": 1513,
      "ĠOct": 1514,
      "reen": 1515,
      "Ġmark": 1516,
      "ĠGree": 1517,
      "Ġcharacter": 1518,
      "rem": 1519,
      "Ġyou": 1520,
      "22": 1521,
      "Ġbus": 1522,
      "ĠWill": 1523,
      "ĠJanuary": 1524,
      "urther": 1525,
      "Ġlast": 1526,
      "Ġapp": 1527,
      "ĠEd": 1528,
      "Ġnon": 1529,
      "mber": 1530,
      "ole": 1531,
      "yd": 1532,
      "Ġposs": 1533,
      "ĠLeague": 1534,
      "idd": 1535,
      "fess": 1536,
      "ese": 1537,
      "ĠAng": 1538,
      "ize": 1539,
      "ords": 1540,
      "ata": 1541,
      "oss": 1542,
      "Ġ2006": 1543,
      "ptember": 1544,
      "Ġsk": 1545,
      "Ġeven": 1546,
      "Ġterm": 1547,
      "Ġline": 1548,
      "Ġrefer": 1549,
      "Ġprocess": 1550,
      "lands": 1551,
      "key": 1552,
      "ilar": 1553,
      "Ġwithin": 1554,
      "Ġplayers": 1555,
      "ĠRuss": 1556,
      "ĠAir": 1557,
      "Ġplayed": 1558,
      "ander": 1559,
      "ography": 1560,
      "Ġhistory": 1561,
      "day": 1562,
      "ases": 1563,
      "ats": 1564,
      "Ġreleased": 1565,
      "urs": 1566,
      "apan": 1567,
      "Ġclub": 1568,
      "Ġpresent": 1569,
      "Ġamong": 1570,
      "Ġdescrib": 1571,
      "Ġav": 1572,
      "Ġstill": 1573,
      "Ã¶": 1574,
      "ially": 1575,
      "view": 1576,
      "Ġsu": 1577,
      "itional": 1578,
      "Ġmillion": 1579,
      "Ġnational": 1580,
      "eder": 1581,
      "Ġold": 1582,
      "iness": 1583,
      "ches": 1584,
      "rab": 1585,
      "ublic": 1586,
      "Ġadv": 1587,
      "adem": 1588,
      "Ġeconom": 1589,
      "born": 1590,
      "ĠRoman": 1591,
      "epend": 1592,
      "ument": 1593,
      "ym": 1594,
      "aster": 1595,
      "14": 1596,
      "stit": 1597,
      "On": 1598,
      "Ġtit": 1599,
      "ĠAfter": 1600,
      "Ch": 1601,
      "ĠMarch": 1602,
      "cember": 1603,
      "Ġvery": 1604,
      "omin": 1605,
      "lymp": 1606,
      "Ġwater": 1607,
      "ourt": 1608,
      "Ġelect": 1609,
      "Ġstat": 1610,
      "ĠSeptember": 1611,
      "Ġdem": 1612,
      "Ġrad": 1613,
      "hern": 1614,
      "ĠChar": 1615,
      "Ġestablished": 1616,
      "ĠEx": 1617,
      "ĠPol": 1618,
      "Ġexpl": 1619,
      "ency": 1620,
      "American": 1621,
      "ĠÃ": 1622,
      "Ġmuch": 1623,
      "olution": 1624,
      "ĠJune": 1625,
      "Ġlocal": 1626,
      "Ġusing": 1627,
      "Ġexper": 1628,
      "13": 1629,
      "ald": 1630,
      "Ġresp": 1631,
      "ĠRep": 1632,
      "Ġtechn": 1633,
      "ense": 1634,
      "ĠOctober": 1635,
      "ief": 1636,
      "Ġmanag": 1637,
      "ains": 1638,
      "Ġsingle": 1639,
      "Ġhistor": 1640,
      "ĠThere": 1641,
      "Ġleft": 1642,
      "Al": 1643,
      "Ġnamed": 1644,
      "Ġband": 1645,
      "ored": 1646,
      "Ġshort": 1647,
      "ĠHis": 1648,
      "ĠGu": 1649,
      "Ġgeneral": 1650,
      "Ġrepl": 1651,
      "orthern": 1652,
      "Ġhel": 1653,
      "Ġtook": 1654,
      "omb": 1655,
      "ampions": 1656,
      "sc": 1657,
      "Ġpublished": 1658,
      "ling": 1659,
      "ĠCollege": 1660,
      "read": 1661,
      "Ġled": 1662,
      "ext": 1663,
      "century": 1664,
      "Ġes": 1665,
      "ook": 1666,
      "Ġlanguage": 1667,
      "ĠFl": 1668,
      "ĠApril": 1669,
      "Ġrepresent": 1670,
      "ĠGeor": 1671,
      "ĠHer": 1672,
      "ĠDecember": 1673,
      "St": 1674,
      "ological": 1675,
      "ĠBer": 1676,
      "urg": 1677,
      "line": 1678,
      "akes": 1679,
      "Ġla": 1680,
      "ories": 1681,
      "Ġbir": 1682,
      "ĠJuly": 1683,
      "Ġ|": 1684,
      "Ġfact": 1685,
      "Ġtem": 1686,
      "Ġheld": 1687,
      "Ġsaid": 1688,
      "Ġhand": 1689,
      "ray": 1690,
      "Ġcrit": 1691,
      "Ġpopular": 1692,
      "Ġtop": 1693,
      "lin": 1694,
      "ille": 1695,
      "ĠTur": 1696,
      "ounc": 1697,
      "aul": 1698,
      "ĠPart": 1699,
      "Ġinflu": 1700,
      "ĠHar": 1701,
      "See": 1702,
      "oon": 1703,
      "Ġread": 1704,
      "Ġevent": 1705,
      "ĠAlex": 1706,
      "ĠNovember": 1707,
      "eth": 1708,
      "iber": 1709,
      "ĠDav": 1710,
      "Ġanother": 1711,
      "Ġaff": 1712,
      "ĠItal": 1713,
      "uted": 1714,
      "Ġmodern": 1715,
      "Ġpat": 1716,
      "Ġvis": 1717,
      "ebru": 1718,
      "ebruary": 1719,
      "Ġcamp": 1720,
      "Ġcomb": 1721,
      "aces": 1722,
      "Ġarch": 1723,
      "Ġorder": 1724,
      "augh": 1725,
      "ĠThese": 1726,
      "ĠSw": 1727,
      "Ġeduc": 1728,
      "ps": 1729,
      "tt": 1730,
      "Ġfore": 1731,
      "yle": 1732,
      "sp": 1733,
      "Ġmen": 1734,
      "ler": 1735,
      "ĠJapan": 1736,
      "Ġcompet": 1737,
      "Ġep": 1738,
      "ĠBr": 1739,
      "Ġday": 1740,
      "Ġ192": 1741,
      "ean": 1742,
      "Ġcr": 1743,
      "ffic": 1744,
      "Ġtyp": 1745,
      "empt": 1746,
      "ead": 1747,
      "Ġbook": 1748,
      "unic": 1749,
      "side": 1750,
      "Ġjust": 1751,
      "ruction": 1752,
      "tal": 1753,
      "pecial": 1754,
      "Ġfre": 1755,
      "ones": 1756,
      "ĠX": 1757,
      "Ġnorth": 1758,
      "inning": 1759,
      "ery": 1760,
      "Ġport": 1761,
      "ink": 1762,
      "Ġdown": 1763,
      "alf": 1764,
      "ĠCo": 1765,
      "Ġorigin": 1766,
      "Ġkill": 1767,
      "Ġwhat": 1768,
      "posed": 1769,
      "Ġcomple": 1770,
      "Ġincluded": 1771,
      "ĠSec": 1772,
      "50": 1773,
      "Ġadm": 1774,
      "rian": 1775,
      "oks": 1776,
      "Ġ$": 1777,
      "Ġlate": 1778,
      "Ġsimilar": 1779,
      "ĠBy": 1780,
      "olic": 1781,
      "umb": 1782,
      "ridge": 1783,
      "int": 1784,
      "196": 1785,
      "Ġbuilt": 1786,
      "Ġconsidered": 1787,
      "anc": 1788,
      "Ġfive": 1789,
      "Ġhig": 1790,
      ".,": 1791,
      "ĠFebruary": 1792,
      "Ġvarious": 1793,
      "Ġsix": 1794,
      "ĠTe": 1795,
      "ĠSch": 1796,
      "Ġconc": 1797,
      "ĠEngland": 1798,
      "ondon": 1799,
      "ĠPhil": 1800,
      "Ġreport": 1801,
      "ford": 1802,
      "astern": 1803,
      "ĠChurch": 1804,
      "ourn": 1805,
      "ivil": 1806,
      "lect": 1807,
      "Ġfinal": 1808,
      "11": 1809,
      "Ġservice": 1810,
      "Ġlevel": 1811,
      "Ġbeg": 1812,
      "sh": 1813,
      "Ġfield": 1814,
      "ĠBC": 1815,
      "ĠEuropean": 1816,
      "Ġgreat": 1817,
      "alt": 1818,
      "vious": 1819,
      "ĠMed": 1820,
      "alk": 1821,
      "ĠCup": 1822,
      "ploy": 1823,
      "ges": 1824,
      "Ġintro": 1825,
      "Ġ2007": 1826,
      "Ġmag": 1827,
      "Ġlist": 1828,
      "Ġdirect": 1829,
      "ots": 1830,
      "ĠAmer": 1831,
      "ĠOlymp": 1832,
      "ney": 1833,
      "ination": 1834,
      "Ġthird": 1835,
      "Ġclaim": 1836,
      "Ġoriginal": 1837,
      "work": 1838,
      "Ġbecome": 1839,
      "ĠWilliam": 1840,
      "uk": 1841,
      "uck": 1842,
      "Ġmake": 1843,
      "Ġiss": 1844,
      "Ġdevelopment": 1845,
      "Ġimportant": 1846,
      "Ġimp": 1847,
      "ison": 1848,
      "ĠState": 1849,
      "ĠAnt": 1850,
      "Ġinf": 1851,
      "Ġevery": 1852,
      "Ġchang": 1853,
      "Ġmember": 1854,
      "formation": 1855,
      "ids": 1856,
      "cast": 1857,
      "Ġactiv": 1858,
      "Ġident": 1859,
      "ara": 1860,
      "ning": 1861,
      "Ġsold": 1862,
      "Ġgiven": 1863,
      "Ġgl": 1864,
      "Ġcompany": 1865,
      "Ġcompos": 1866,
      "ana": 1867,
      "Ġmilitary": 1868,
      "ining": 1869,
      "ites": 1870,
      "Ġpolitical": 1871,
      "Ġ11": 1872,
      "Ġparticular": 1873,
      "ule": 1874,
      "Ġprot": 1875,
      "craft": 1876,
      "ĠCounty": 1877,
      "rican": 1878,
      "Ġmult": 1879,
      "Ġless": 1880,
      "Ġsouth": 1881,
      "apt": 1882,
      "ĠLondon": 1883,
      "ivid": 1884,
      "ops": 1885,
      "Ġfew": 1886,
      "ician": 1887,
      "Ġinvol": 1888,
      "Ġtelevision": 1889,
      "oad": 1890,
      "eh": 1891,
      "ino": 1892,
      "ĠEl": 1893,
      "Ġregion": 1894,
      "Ġbeh": 1895,
      "Ġcontrol": 1896,
      "Ġcomput": 1897,
      "Ġassoci": 1898,
      "less": 1899,
      "Ġ2010": 1900,
      "ouncil": 1901,
      "ĠOne": 1902,
      "ĠAc": 1903,
      "rick": 1904,
      "Ġappear": 1905,
      "ask": 1906,
      "Ġfilms": 1907,
      "ĠMc": 1908,
      "Ġcurrent": 1909,
      "Ġpract": 1910,
      "ĠComp": 1911,
      "Ġpoint": 1912,
      "Ġwin": 1913,
      "ĠInternational": 1914,
      "Ġperform": 1915,
      "Ġstation": 1916,
      "Ġ190": 1917,
      "Ġproduced": 1918,
      "Ġstruct": 1919,
      "ither": 1920,
      "bert": 1921,
      "Ġwithout": 1922,
      "An": 1923,
      "Ġwomen": 1924,
      "ming": 1925,
      "Ġbi": 1926,
      "ogn": 1927,
      "Ġ30": 1928,
      "ertain": 1929,
      "lear": 1930,
      "Ġhowever": 1931,
      "Th": 1932,
      "osp": 1933,
      "Ġindust": 1934,
      "rote": 1935,
      "ention": 1936,
      "rag": 1937,
      "Ġrole": 1938,
      "ĠHigh": 1939,
      "Ġneed": 1940,
      "Ġway": 1941,
      "irc": 1942,
      "Ġturn": 1943,
      "Ġsol": 1944,
      "Ġdeveloped": 1945,
      "ĠReg": 1946,
      "Ġ2005": 1947,
      "Ġhuman": 1948,
      "iron": 1949,
      "rap": 1950,
      "of": 1951,
      "ends": 1952,
      "gen": 1953,
      "ering": 1954,
      "Ġcame": 1955,
      "ĠCanada": 1956,
      "ef": 1957,
      "app": 1958,
      "ĠCor": 1959,
      "ĠSup": 1960,
      "Ġphys": 1961,
      "ably": 1962,
      "Ġcond": 1963,
      "ched": 1964,
      "ĠSoc": 1965,
      "Ġdel": 1966,
      "men": 1967,
      "Ġlim": 1968,
      "Ġinit": 1969,
      "Ġjoin": 1970,
      "istic": 1971,
      "acks": 1972,
      "Ġproper": 1973,
      "ĠChristian": 1974,
      "Ġ2008": 1975,
      "Ġtimes": 1976,
      "ĠEn": 1977,
      "Ġprim": 1978,
      "most": 1979,
      "hers": 1980,
      "Ġlocated": 1981,
      "Ġspecies": 1982,
      "ideo": 1983,
      "ban": 1984,
      "Ġclos": 1985,
      "atter": 1986,
      "ama": 1987,
      "Ġproduction": 1988,
      "Ġhaving": 1989,
      "thern": 1990,
      "Ġconf": 1991,
      "eneral": 1992,
      "Ġreceived": 1993,
      "aut": 1994,
      "Ġareas": 1995,
      "Ġbre": 1996,
      "ĠBel": 1997,
      "eum": 1998,
      "Ġattempt": 1999,
      "ccording": 2000,
      "ote": 2001,
      "reg": 2002,
      "ows": 2003,
      "Ġengine": 2004,
      "ours": 2005,
      "Ġview": 2006,
      "arian": 2007,
      "sequ": 2008,
      "BC": 2009,
      "Ġ||": 2010,
      "ype": 2011,
      "ĠDiv": 2012,
      "Ġcaus": 2013,
      "ĠEar": 2014,
      "ĠPres": 2015,
      "zer": 2016,
      "ape": 2017,
      "Ġcareer": 2018,
      "ÃŃ": 2019,
      "Ġdeb": 2020,
      "Ġpost": 2021,
      "anish": 2022,
      "Ġversion": 2023,
      "Ġfe": 2024,
      "ĠArt": 2025,
      "ĠUnion": 2026,
      "Ġ2011": 2027,
      "Ġside": 2028,
      "ware": 2029,
      "ĠGreek": 2030,
      "ev": 2031,
      "Ġproduc": 2032,
      "ĠBra": 2033,
      "ael": 2034,
      "Ġsour": 2035,
      "ĠPark": 2036,
      "Ġson": 2037,
      "Ġ2009": 2038,
      "outhern": 2039,
      "Ġide": 2040,
      "Ġtri": 2041,
      "ĠRec": 2042,
      "Ġlow": 2043,
      "rated": 2044,
      "ope": 2045,
      "co": 2046,
      "Ġsw": 2047,
      "ĠAmerica": 2048,
      "aken": 2049,
      "aur": 2050,
      "Ġwritten": 2051,
      "avy": 2052,
      "Ġsomet": 2053,
      "udd": 2054,
      "Ġsug": 2055,
      "Ġspecial": 2056,
      "Ġanal": 2057,
      "Ġanim": 2058,
      "Ġrese": 2059,
      "Ġship": 2060,
      "ĠEast": 2061,
      "Ġchildren": 2062,
      "Ġappl": 2063,
      "mpire": 2064,
      "ained": 2065,
      "ential": 2066,
      "bo": 2067,
      "Ġsent": 2068,
      "ront": 2069,
      "Ġbase": 2070,
      "abor": 2071,
      "Ġwrote": 2072,
      "ificant": 2073,
      "Ġlargest": 2074,
      "Ġnov": 2075,
      "Ġright": 2076,
      "23": 2077,
      "Ġexist": 2078,
      "ĠAustralian": 2079,
      "idence": 2080,
      "Ġrul": 2081,
      "Ġtake": 2082,
      "Ġgroups": 2083,
      "Ġer": 2084,
      "ances": 2085,
      "Ġtotal": 2086,
      "aint": 2087,
      "ĠAustralia": 2088,
      "Ġprevious": 2089,
      "Ġbusiness": 2090,
      "Ġdied": 2091,
      "ampionship": 2092,
      "hod": 2093,
      "Ġworks": 2094,
      "Ġcountries": 2095,
      "Ġprofess": 2096,
      "Ġbelie": 2097,
      "ĠDavid": 2098,
      "Ġtest": 2099,
      "Ġindivid": 2100,
      "Ġofficial": 2101,
      "Ġgen": 2102,
      "Ġ0": 2103,
      "Ġbroad": 2104,
      "acy": 2105,
      "itive": 2106,
      "Ġmean": 2107,
      "Ġcase": 2108,
      "Ġinternational": 2109,
      "ĠGermany": 2110,
      "Ġgrow": 2111,
      "oyal": 2112,
      "Ġindepend": 2113,
      "Ġsee": 2114,
      "inister": 2115,
      "Ġ189": 2116,
      "Ġalthough": 2117,
      "Ġ2012": 2118,
      "cient": 2119,
      "ways": 2120,
      "Ġrelig": 2121,
      "Ġrelations": 2122,
      "ĠSan": 2123,
      "Ġcover": 2124,
      "Ġ2000": 2125,
      "serv": 2126,
      "ĠHol": 2127,
      "ĠAct": 2128,
      "ĠArab": 2129,
      "here": 2130,
      "ators": 2131,
      "Ġreal": 2132,
      "Ġdet": 2133,
      "Ġproduct": 2134,
      "wh": 2135,
      "off": 2136,
      "Ġstre": 2137,
      "Ġfunction": 2138,
      "Ġsignificant": 2139,
      "raw": 2140,
      "Ġdoes": 2141,
      "Ġmater": 2142,
      "atural": 2143,
      "Ġusually": 2144,
      "Ġposition": 2145,
      "itu": 2146,
      "right": 2147,
      "rest": 2148,
      "Ġbody": 2149,
      "Ġattack": 2150,
      "na": 2151,
      "Ġwee": 2152,
      "Ġbest": 2153,
      "ability": 2154,
      "Ġcreated": 2155,
      "Ġ2004": 2156,
      "Ġserved": 2157,
      "Ġstates": 2158,
      "ounced": 2159,
      "self": 2160,
      "ĠPort": 2161,
      "ani": 2162,
      "iforn": 2163,
      "Ġshould": 2164,
      "iction": 2165,
      "ached": 2166,
      "Ġproble": 2167,
      "iddle": 2168,
      "Ġsepar": 2169,
      "ĠAfrican": 2170,
      "forman": 2171,
      "Ġdecl": 2172,
      "ĠParty": 2173,
      "ĠGod": 2174,
      "Ġvol": 2175,
      "iation": 2176,
      "ĠGl": 2177,
      "Ġtreat": 2178,
      "Ġhost": 2179,
      "iment": 2180,
      "Ġfac": 2181,
      "ĠBlack": 2182,
      "aff": 2183,
      "Ġnet": 2184,
      "rain": 2185,
      "ĠCro": 2186,
      "ensive": 2187,
      "oms": 2188,
      "mit": 2189,
      "Ġdev": 2190,
      "Ġel": 2191,
      "ĠRiver": 2192,
      "bor": 2193,
      "ĠMich": 2194,
      "ington": 2195,
      "ending": 2196,
      "Ġhalf": 2197,
      "ĠHouse": 2198,
      "otes": 2199,
      "Ã³": 2200,
      "Ġproject": 2201,
      "Ġbuilding": 2202,
      "Ġ25": 2203,
      "Ġstrong": 2204,
      "Ġarg": 2205,
      "ummer": 2206,
      "Ġ2014": 2207,
      "Ġvill": 2208,
      "ification": 2209,
      "Ġdest": 2210,
      "Ġsocial": 2211,
      "ĠWhen": 2212,
      "ĠJew": 2213,
      "ĠIndian": 2214,
      "Ar": 2215,
      "ournal": 2216,
      "utes": 2217,
      "Ġdistrict": 2218,
      "nect": 2219,
      "Ġ1990": 2220,
      "Ġage": 2221,
      "Ġmy": 2222,
      "ĠTr": 2223,
      "Ġsystems": 2224,
      "Ġ2013": 2225,
      "30": 2226,
      "Ġyoung": 2227,
      "194": 2228,
      "ĠMon": 2229,
      "Ġothers": 2230,
      "ication": 2231,
      "ĠAward": 2232,
      "Ġpe": 2233,
      "val": 2234,
      "Ġtw": 2235,
      "Ġstudy": 2236,
      "aper": 2237,
      "ĠPer": 2238,
      "rica": 2239,
      "Ġfurther": 2240,
      "mb": 2241,
      "ĠArmy": 2242,
      "ĠRes": 2243,
      "Ġder": 2244,
      "ĠDivision": 2245,
      "used": 2246,
      "Ġke": 2247,
      "field": 2248,
      "ifornia": 2249,
      "Ġpri": 2250,
      "Ġlight": 2251,
      "iqu": 2252,
      "Ġcontinued": 2253,
      "Ġfather": 2254,
      "Ġdescribed": 2255,
      "Ġnext": 2256,
      "Ġspace": 2257,
      "iol": 2258,
      "ĠPaul": 2259,
      "ĠNo": 2260,
      "ĠFrance": 2261,
      "ude": 2262,
      "Ġsuggest": 2263,
      "Ġmaterial": 2264,
      "Ġaddition": 2265,
      "ĠKingdom": 2266,
      "imate": 2267,
      "Ġtex": 2268,
      "Ġestablish": 2269,
      "ĠSome": 2270,
      "writ": 2271,
      "Ġ24": 2272,
      "ĠCath": 2273,
      "Ġcell": 2274,
      "ĠSm": 2275,
      "ades": 2276,
      "ari": 2277,
      "Ġking": 2278,
      "ĠSy": 2279,
      "Ġmoved": 2280,
      "play": 2281,
      "unicip": 2282,
      "iers": 2283,
      "ĠNor": 2284,
      "bit": 2285,
      "Ġpoin": 2286,
      "ha": 2287,
      "History": 2288,
      "Ġtitle": 2289,
      "ÅŁ": 2290,
      "Ġmethod": 2291,
      "Ġhold": 2292,
      "atin": 2293,
      "hel": 2294,
      "Ġhouse": 2295,
      "Ġborn": 2296,
      "Ġmust": 2297,
      "now": 2298,
      "ify": 2299,
      "uf": 2300,
      "ĠMor": 2301,
      "Ġmot": 2302,
      "Ġphil": 2303,
      "ĠCalifornia": 2304,
      "As": 2305,
      "ush": 2306,
      "Ġinterest": 2307,
      "berg": 2308,
      "mon": 2309,
      "Ġtheory": 2310,
      "icle": 2311,
      "Ġgr": 2312,
      "Ġeither": 2313,
      "ett": 2314,
      "Ġgood": 2315,
      "Ġ188": 2316,
      "Ġord": 2317,
      "ĠDist": 2318,
      "enced": 2319,
      "uel": 2320,
      "Ġmass": 2321,
      "Un": 2322,
      "Ġfail": 2323,
      "Ġblack": 2324,
      "incip": 2325,
      "ky": 2326,
      "Ġobject": 2327,
      "Ġbar": 2328,
      "itect": 2329,
      "195": 2330,
      "utions": 2331,
      "ements": 2332,
      "Ġmer": 2333,
      "arent": 2334,
      "Ġformed": 2335,
      "pecially": 2336,
      "de": 2337,
      "Ġforces": 2338,
      "Ġ2015": 2339,
      "ma": 2340,
      "Ġ1980": 2341,
      "Ġearli": 2342,
      "Ġstyle": 2343,
      "Ġavail": 2344,
      "itar": 2345,
      "ula": 2346,
      "ĠGro": 2347,
      "Ġdays": 2348,
      "duction": 2349,
      "Ġ[": 2350,
      "ĠRober": 2351,
      "Ġhow": 2352,
      "Ġ()": 2353,
      "ico": 2354,
      "Ġcal": 2355,
      "ĠWestern": 2356,
      "ĠDuring": 2357,
      "Ġperforman": 2358,
      "Ġsite": 2359,
      "ising": 2360,
      "umn": 2361,
      "II": 2362,
      "order": 2363,
      "Ġ2003": 2364,
      "ibr": 2365,
      "Ġrev": 2366,
      "ĠLa": 2367,
      "ĠAfrica": 2368,
      "ĠGeorge": 2369,
      "Ġtro": 2370,
      "ria": 2371,
      "bers": 2372,
      "He": 2373,
      "pite": 2374,
      "asing": 2375,
      "Ġ186": 2376,
      "Ġpriv": 2377,
      "Ġpresident": 2378,
      "aries": 2379,
      "ĠEmpire": 2380,
      "ĠCanadian": 2381,
      "sy": 2382,
      "Ġoffer": 2383,
      "Ġfull": 2384,
      "Ġwid": 2385,
      "Ġcommunity": 2386,
      "Ġcoach": 2387,
      "Ġlaun": 2388,
      "Ġnever": 2389,
      "ĠEm": 2390,
      "ki": 2391,
      "Ġwent": 2392,
      "Ġ2001": 2393,
      "ĠPal": 2394,
      "Ġenc": 2395,
      "Ġcirc": 2396,
      "ĠGreat": 2397,
      "Ġliter": 2398,
      "ulated": 2399,
      "Ġ2002": 2400,
      "ston": 2401,
      "hib": 2402,
      "Ġ100": 2403,
      "Com": 2404,
      "Ġrecogn": 2405,
      "ĠPresident": 2406,
      "ĠBu": 2407,
      "Ġresearch": 2408,
      "ĠYou": 2409,
      "bon": 2410,
      "Ġpolitician": 2411,
      "ĠRich": 2412,
      "ateg": 2413,
      "Ġfind": 2414,
      "Ġmaking": 2415,
      "etic": 2416,
      "Ġfree": 2417,
      "25": 2418,
      "ĠIndia": 2419,
      "ills": 2420,
      "arn": 2421,
      "Ġobserv": 2422,
      "Ġemploy": 2423,
      "Ġrail": 2424,
      "ĠSl": 2425,
      "artment": 2426,
      "Ã§": 2427,
      "Ġelection": 2428,
      "imately": 2429,
      "ique": 2430,
      "Ġlost": 2431,
      "Ġterrit": 2432,
      "ĠJames": 2433,
      "Ġstory": 2434,
      "Ġlanguages": 2435,
      "Ġvict": 2436,
      "Ġstudents": 2437,
      "ĠDes": 2438,
      "enc": 2439,
      "viron": 2440,
      "ened": 2441,
      "Ġinvest": 2442,
      "Ġfounded": 2443,
      "chie": 2444,
      "ĠMart": 2445,
      "Ġ21": 2446,
      "Ġmale": 2447,
      "ĠGeneral": 2448,
      "Ġ1999": 2449,
      "Ġannounced": 2450,
      "Ġdiscover": 2451,
      "Ġfootballer": 2452,
      "Ġrange": 2453,
      "AS": 2454,
      "ĠDay": 2455,
      "Ġ187": 2456,
      "Ġhimself": 2457,
      "Ġepis": 2458,
      "Ġoccur": 2459,
      "Ġtransl": 2460,
      "Ġbecom": 2461,
      "ples": 2462,
      "het": 2463,
      "ĠRepublic": 2464,
      "Ġcross": 2465,
      "Ġadminist": 2466,
      "ĠScott": 2467,
      "fic": 2468,
      "Ġ2016": 2469,
      "ĠPress": 2470,
      "Ġeducation": 2471,
      "Ġfri": 2472,
      "ĠCouncil": 2473,
      "face": 2474,
      "Ġmid": 2475,
      "ĠQu": 2476,
      "Ġleast": 2477,
      "Ġrock": 2478,
      "inter": 2479,
      "Ġseen": 2480,
      "oviet": 2481,
      "Ġz": 2482,
      "ĠWith": 2483,
      "inese": 2484,
      "go": 2485,
      "Ġpress": 2486,
      "Ġbirths": 2487,
      "Ġvideo": 2488,
      "Ġ2017": 2489,
      "Ġexpress": 2490,
      "itor": 2491,
      "Ġimpro": 2492,
      "liament": 2493,
      "Ġavailable": 2494,
      "hest": 2495,
      "ollo": 2496,
      "Ġground": 2497,
      "Ġdata": 2498,
      "ĠThom": 2499,
      "year": 2500,
      "Ġagre": 2501,
      "icro": 2502,
      "Ġinformation": 2503,
      "Ġtre": 2504,
      "Ġaircraft": 2505,
      "ĠGovern": 2506,
      "Ġexec": 2507,
      "Ġweb": 2508,
      "Ġparts": 2509,
      "ceed": 2510,
      "chol": 2511,
      "aves": 2512,
      "Ġmeas": 2513,
      "Ġcapital": 2514,
      "Ġrather": 2515,
      "ĠDem": 2516,
      "Ġmodel": 2517,
      "Ġpot": 2518,
      "Ġ1970": 2519,
      "Ġevents": 2520,
      "Ġver": 2521,
      "Ġfire": 2522,
      "roy": 2523,
      "Ġconsist": 2524,
      "Ġaver": 2525,
      "Ġgrad": 2526,
      "Ġparty": 2527,
      "Ġcost": 2528,
      ".)": 2529,
      "ĠSte": 2530,
      "Ġmarket": 2531,
      "ĠAssoci": 2532,
      "Ġpossible": 2533,
      "Ġcompan": 2534,
      "Ġsuccessful": 2535,
      "Ġmiss": 2536,
      "Ġ2018": 2537,
      "ĠStre": 2538,
      "Ġdi": 2539,
      "Ġespecially": 2540,
      "Ġword": 2541,
      "Ġfollowed": 2542,
      "Ġbattle": 2543,
      "Ġcop": 2544,
      "ilm": 2545,
      "ister": 2546,
      "ĠProv": 2547,
      "ĠQue": 2548,
      "Ġ(\"": 2549,
      "ĠChina": 2550,
      "ipp": 2551,
      "ĠHen": 2552,
      "Ġtaken": 2553,
      "Ġstarted": 2554,
      "'t": 2555,
      "Ġthroughout": 2556,
      "Ġsometimes": 2557,
      "Äģ": 2558,
      "atory": 2559,
      "ocr": 2560,
      "Ġphilos": 2561,
      "Ġ23": 2562,
      "arily": 2563,
      "Ġaward": 2564,
      "Ġred": 2565,
      "oted": 2566,
      "gether": 2567,
      "cript": 2568,
      "Ġcy": 2569,
      "Ġtogether": 2570,
      "Ġaccount": 2571,
      "chan": 2572,
      "lant": 2573,
      "Ġgenerally": 2574,
      "Ġfem": 2575,
      "onst": 2576,
      "ĠCatholic": 2577,
      "Ġacross": 2578,
      "Ġreturned": 2579,
      "Ġcivil": 2580,
      "mar": 2581,
      "Ġast": 2582,
      "ĠIre": 2583,
      "Ġstar": 2584,
      "wood": 2585,
      "Ġintroduced": 2586,
      "Ġ1998": 2587,
      "Ġreported": 2588,
      "Ġtype": 2589,
      "ls": 2590,
      "oid": 2591,
      "aign": 2592,
      "ĠMe": 2593,
      "iles": 2594,
      "ume": 2595,
      "ĠOther": 2596,
      "ĠVal": 2597,
      "me": 2598,
      "ĠHall": 2599,
      "cle": 2600,
      "ĠNe": 2601,
      "Ġculture": 2602,
      "ĠCentral": 2603,
      "Ġroad": 2604,
      "Ġnumbers": 2605,
      "ago": 2606,
      "Ġpoints": 2607,
      "lor": 2608,
      "ĠFirst": 2609,
      "Ġdeg": 2610,
      "Ġpur": 2611,
      "van": 2612,
      "erous": 2613,
      "Ġfar": 2614,
      "Ġleague": 2615,
      "Ġeast": 2616,
      "anted": 2617,
      "Ġplan": 2618,
      "Ġentire": 2619,
      "ĠPri": 2620,
      "Ġabove": 2621,
      "ĠCharles": 2622,
      "ergy": 2623,
      "Ġincludes": 2624,
      "atal": 2625,
      "After": 2626,
      "iting": 2627,
      "ĠRoyal": 2628,
      "ĠRussian": 2629,
      "Ġhelp": 2630,
      "icy": 2631,
      "ĠLou": 2632,
      "Ġchem": 2633,
      "ĠSal": 2634,
      "Ġmultip": 2635,
      "ĠRed": 2636,
      "ĠArch": 2637,
      "Ġmount": 2638,
      "Ġdou": 2639,
      "ishing": 2640,
      "Ġkey": 2641,
      "Ġnovel": 2642,
      "Ġcentral": 2643,
      "ĠSpanish": 2644,
      "Ġfall": 2645,
      "gress": 2646,
      "nel": 2647,
      "Ġnatural": 2648,
      "ĠMichael": 2649,
      "ference": 2650,
      "Ġtour": 2651,
      "ought": 2652,
      "be": 2653,
      "Ġaccept": 2654,
      "Ġdoc": 2655,
      "uth": 2656,
      "Ġbrother": 2657,
      "ĠCong": 2658,
      "ĠBay": 2659,
      "Ġround": 2660,
      "There": 2661,
      "Ġmem": 2662,
      "anding": 2663,
      "193": 2664,
      "Ġdeter": 2665,
      "oney": 2666,
      "min": 2667,
      "Ġcertain": 2668,
      "Ġradio": 2669,
      "Ġ26": 2670,
      "Ġsubject": 2671,
      ");": 2672,
      "Ġabs": 2673,
      "ĠIreland": 2674,
      "ĠMag": 2675,
      "Ġschools": 2676,
      "Ġfight": 2677,
      "icles": 2678,
      "Ġfund": 2679,
      "vironment": 2680,
      "Ġchange": 2681,
      "icated": 2682,
      "Ġonce": 2683,
      "Ġcontrib": 2684,
      "ĠDistrict": 2685,
      "istan": 2686,
      "Ġsqu": 2687,
      "ĠOlympics": 2688,
      "ilities": 2689,
      "Ġaway": 2690,
      "ĠĠĠĠĠĠĠĠ": 2691,
      "Ġstri": 2692,
      "Ġser": 2693,
      "Ġfig": 2694,
      "ili": 2695,
      "âĢĻ": 2696,
      "Ġcomplex": 2697,
      "ĠItalian": 2698,
      "Ġ=": 2699,
      "ĠMal": 2700,
      "Ġprincip": 2701,
      "ĠPat": 2702,
      "Ġinstit": 2703,
      "ĠKh": 2704,
      "ĠDep": 2705,
      "Ġeth": 2706,
      "Ġupon": 2707,
      "ĠInstit": 2708,
      "aches": 2709,
      "ĠSoviet": 2710,
      "Ġ2019": 2711,
      "ĠAlexander": 2712,
      "iy": 2713,
      "ĠSer": 2714,
      "Ġaccess": 2715,
      "Ġappeared": 2716,
      "Ġcoast": 2717,
      "rim": 2718,
      "Ġstandard": 2719,
      "ederal": 2720,
      "Ġmunicip": 2721,
      "Ġforms": 2722,
      "Ġwest": 2723,
      "Ġfrequ": 2724,
      "Ġsound": 2725,
      "Ġren": 2726,
      "Ġdirector": 2727,
      "olit": 2728,
      "uments": 2729,
      "Ġscient": 2730,
      "lam": 2731,
      "put": 2732,
      "Ġge": 2733,
      "iter": 2734,
      "Ġforce": 2735,
      "ĠJapanese": 2736,
      "ville": 2737,
      "ĠAccording": 2738,
      "rael": 2739,
      "Ġchurch": 2740,
      "like": 2741,
      "ĠChinese": 2742,
      "ecess": 2743,
      "Ġ1996": 2744,
      "elt": 2745,
      "ĠMex": 2746,
      "Ġparticip": 2747,
      "Ġlik": 2748,
      "Ġ2020": 2749,
      "Ġmeans": 2750,
      "utch": 2751,
      "Ġregard": 2752,
      "Ġservices": 2753,
      "CA": 2754,
      "Ġill": 2755,
      "burg": 2756,
      "ground": 2757,
      "Ġlive": 2758,
      "Ġrecorded": 2759,
      "atch": 2760,
      "Ġfood": 2761,
      "Ġalmost": 2762,
      "ĠList": 2763,
      "oice": 2764,
      "ving": 2765,
      "Ġball": 2766,
      "oe": 2767,
      "ĠTer": 2768,
      "Ġremained": 2769,
      "rup": 2770,
      "itch": 2771,
      "Ġhigher": 2772,
      "Ġterms": 2773,
      "Ġinstead": 2774,
      "Ġhard": 2775,
      "Ġarr": 2776,
      "Ġarmy": 2777,
      "Ġelements": 2778,
      "ump": 2779,
      "ership": 2780,
      "Ġguitar": 2781,
      "rel": 2782,
      "ems": 2783,
      "asc": 2784,
      "ply": 2785,
      "Ġ1960": 2786,
      "Ġten": 2787,
      "isl": 2788,
      "ĠMy": 2789,
      "mercial": 2790,
      "Ġeconomic": 2791,
      "Ġcoll": 2792,
      "Ġschol": 2793,
      "Ġrights": 2794,
      "Ġcomputer": 2795,
      "ores": 2796,
      "Ġgold": 2797,
      "ĠSam": 2798,
      "Ġlower": 2799,
      "Ġcharacters": 2800,
      "tained": 2801,
      "Ġ1997": 2802,
      "Ġtrib": 2803,
      "action": 2804,
      "och": 2805,
      "Ġsurv": 2806,
      "Ġcommand": 2807,
      "Ġancient": 2808,
      "Ġcapt": 2809,
      "ĠRobert": 2810,
      "Ġbooks": 2811,
      "Ġ22": 2812,
      "Ġsinger": 2813,
      "Ġrespect": 2814,
      "cer": 2815,
      "oor": 2816,
      "rig": 2817,
      "Ġarchitect": 2818,
      "site": 2819,
      "nder": 2820,
      "Ġfeatures": 2821,
      "Ġmix": 2822,
      "ĠCourt": 2823,
      "zil": 2824,
      "Ġconnect": 2825,
      "Ġ27": 2826,
      "ĠChampionship": 2827,
      "Ġpain": 2828,
      "ka": 2829,
      "\")": 2830,
      "Ġdesigned": 2831,
      "ingu": 2832,
      "Ġthus": 2833,
      "Ġarm": 2834,
      "rought": 2835,
      "Ġreb": 2836,
      "Ġitself": 2837,
      "ĠStud": 2838,
      "Ġcontain": 2839,
      "ĠTrans": 2840,
      "Ġmeet": 2841,
      "Ġassist": 2842,
      "ĠAcadem": 2843,
      "ĠWe": 2844,
      "rial": 2845,
      "Ġactor": 2846,
      "ydro": 2847,
      "Ġrespons": 2848,
      "inary": 2849,
      "Ġden": 2850,
      "Ġknow": 2851,
      "Ġkilled": 2852,
      "atives": 2853,
      "Ġmother": 2854,
      "medi": 2855,
      "Ġput": 2856,
      "ental": 2857,
      "Ġleading": 2858,
      "Ġcourt": 2859,
      "position": 2860,
      "Ġaverage": 2861,
      "Pro": 2862,
      "Ġprote": 2863,
      "elling": 2864,
      "Ġachie": 2865,
      "Ġpred": 2866,
      "Ġfoc": 2867,
      "ĠUK": 2868,
      "ception": 2869,
      "ij": 2870,
      "Ġable": 2871,
      "|-": 2872,
      "Ġneg": 2873,
      "Ġgave": 2874,
      "igned": 2875,
      "ties": 2876,
      "Ġfav": 2877,
      "Ġisland": 2878,
      "Ġaccording": 2879,
      "Ġtemper": 2880,
      "ĠIts": 2881,
      "Ġpers": 2882,
      "ĠTra": 2883,
      "Ġ1994": 2884,
      "Ġjoined": 2885,
      "Ġeventually": 2886,
      "gin": 2887,
      "Ġche": 2888,
      "Ġwhose": 2889,
      "Ġnetwork": 2890,
      "Ġcompanies": 2891,
      "aps": 2892,
      "Ġ28": 2893,
      "ĠLatin": 2894,
      "ked": 2895,
      "ĠLaw": 2896,
      "ios": 2897,
      "ĠTo": 2898,
      "ĠSim": 2899,
      "Ġ2021": 2900,
      "aughter": 2901,
      "Ġperformance": 2902,
      "asons": 2903,
      "Ġtrade": 2904,
      "Ġviol": 2905,
      "Ġconstruction": 2906,
      "ĠCont": 2907,
      "ĠMinister": 2908,
      "Ġ1995": 2909,
      "ires": 2910,
      "Ġhealth": 2911,
      "aching": 2912,
      "Ġmonths": 2913,
      "Ġcampaign": 2914,
      "Ġunivers": 2915,
      "ulture": 2916,
      "Ġcondu": 2917,
      "Ġhon": 2918,
      "Ġopened": 2919,
      "):": 2920,
      "ste": 2921,
      "unt": 2922,
      "bour": 2923,
      "ĠMount": 2924,
      "ĠAssociation": 2925,
      "Ġcour": 2926,
      "Ġpast": 2927,
      "oul": 2928,
      "ĠStreet": 2929,
      "ĠBattle": 2930,
      "sych": 2931,
      "Ġmarried": 2932,
      "airs": 2933,
      "Ġweek": 2934,
      "Ġste": 2935,
      "Ġtraditional": 2936,
      "Ġinteg": 2937,
      "ols": 2938,
      "Ġcritic": 2939,
      "not": 2940,
      "ĠNet": 2941,
      "Ġcast": 2942,
      "ĠBur": 2943,
      "ĠCap": 2944,
      "Ġvoc": 2945,
      "Ġmeaning": 2946,
      "ĠTex": 2947,
      "ĠSen": 2948,
      "Ġet": 2949,
      "ĠWhile": 2950,
      "Ġsoft": 2951,
      "ĠIsland": 2952,
      "ĠFrank": 2953,
      "Ġuses": 2954,
      "ĠWil": 2955,
      "Ġrelated": 2956,
      "ĠMuseum": 2957,
      "Ġ50": 2958,
      "ĠSociety": 2959,
      "24": 2960,
      "Ġmovement": 2961,
      "ÄŁ": 2962,
      "Ġjud": 2963,
      "ulg": 2964,
      "Ġevidence": 2965,
      "ishop": 2966,
      "Ġeight": 2967,
      "ux": 2968,
      "Ġadop": 2969,
      "Ġtransport": 2970,
      "orks": 2971,
      "Ġassociated": 2972,
      "Ġvillage": 2973,
      "Ġsil": 2974,
      "Ġindustry": 2975,
      "People": 2976,
      "utive": 2977,
      "ranch": 2978,
      "lim": 2979,
      "iding": 2980,
      "Ġprovided": 2981,
      "Ġtext": 2982,
      "For": 2983,
      "olk": 2984,
      "ĠBudd": 2985,
      "Ġenergy": 2986,
      "uation": 2987,
      "Ġacadem": 2988,
      "ications": 2989,
      "odes": 2990,
      "Ġapprox": 2991,
      "Ġ1992": 2992,
      "iff": 2993,
      "Ġclose": 2994,
      "time": 2995,
      "ĠHam": 2996,
      "Ġoffice": 2997,
      "west": 2998,
      "Ġopt": 2999,
      "gypt": 3000,
      "eleb": 3001,
      "At": 3002,
      "kn": 3003,
      "clus": 3004,
      "Ġacqu": 3005,
      "ysis": 3006,
      "Ġstructure": 3007,
      "Ġimm": 3008,
      "ounter": 3009,
      "Ġdistrib": 3010,
      "ĠMac": 3011,
      "Ġsubsequ": 3012,
      "Ġcolon": 3013,
      "Ġbroadcast": 3014,
      "Ġregular": 3015,
      "Ġreplaced": 3016,
      "ror": 3017,
      "uns": 3018,
      "Ġaud": 3019,
      "Ġprop": 3020,
      "Ġkm": 3021,
      "ashington": 3022,
      "ĠâĢĶ": 3023,
      "ĠAtlant": 3024,
      "ulf": 3025,
      "ĠDr": 3026,
      "Ġprob": 3027,
      "Ġreview": 3028,
      "ĠBas": 3029,
      "aker": 3030,
      "ĠZe": 3031,
      "estival": 3032,
      "Ġelected": 3033,
      "ĠBook": 3034,
      "Ġinstr": 3035,
      "It": 3036,
      "Ġsex": 3037,
      "ĠBen": 3038,
      "ĠIr": 3039,
      "ointed": 3040,
      "Ġthought": 3041,
      "ĠApollo": 3042,
      "oys": 3043,
      "Ġrate": 3044,
      "Ġresults": 3045,
      "Ġoccup": 3046,
      "ibility": 3047,
      "ĠRoad": 3048,
      "aval": 3049,
      "Ġscience": 3050,
      "Ġworking": 3051,
      "Ġvalue": 3052,
      "Ġoriginally": 3053,
      "ĠSecond": 3054,
      "itte": 3055,
      "amer": 3056,
      "Ġnorthern": 3057,
      "Ġsuper": 3058,
      "ams": 3059,
      "Ġplaces": 3060,
      "based": 3061,
      "ockey": 3062,
      "Ġallowed": 3063,
      "ficult": 3064,
      "Ġself": 3065,
      "Ġphot": 3066,
      "Ġadded": 3067,
      "Ġ40": 3068,
      "rast": 3069,
      "ibrary": 3070,
      "ĠPeter": 3071,
      "Ġmanager": 3072,
      "Ġindividual": 3073,
      "Ġsaw": 3074,
      "Ġox": 3075,
      "ĠThomas": 3076,
      "Ġdeterm": 3077,
      "rd": 3078,
      "istics": 3079,
      "aged": 3080,
      "Ġbrought": 3081,
      "Ġprovide": 3082,
      "Ġnames": 3083,
      "ĠBritain": 3084,
      "atively": 3085,
      "ĠGrand": 3086,
      "ĠSpe": 3087,
      "uture": 3088,
      "Ġcommercial": 3089,
      "ĠEarth": 3090,
      "oz": 3091,
      "Ġoutside": 3092,
      "ĠTV": 3093,
      "Ġjournal": 3094,
      "Ġworked": 3095,
      "aria": 3096,
      "rol": 3097,
      "Ġwhite": 3098,
      "ĠFranc": 3099,
      "Ġcities": 3100,
      "ĠHistory": 3101,
      "ĠGold": 3102,
      "Ġfront": 3103,
      "Ġget": 3104,
      "head": 3105,
      "Ġdifficult": 3106,
      "Ġincreased": 3107,
      "Ġsize": 3108,
      "ĠAlthough": 3109,
      "Ġperformed": 3110,
      "Ġreligious": 3111,
      "inct": 3112,
      "Ġestim": 3113,
      "Ġconstit": 3114,
      "gian": 3115,
      "ĠKar": 3116,
      "Ġrank": 3117,
      "hood": 3118,
      "ĠSea": 3119,
      "nes": 3120,
      ",\"": 3121,
      "hab": 3122,
      "ĠMer": 3123,
      "Ġneigh": 3124,
      "Ġcompleted": 3125,
      "bra": 3126,
      "ĠTurkey": 3127,
      "ĠOper": 3128,
      "ĠGroup": 3129,
      "omm": 3130,
      "uries": 3131,
      "Ġwife": 3132,
      "ĠRad": 3133,
      "Ġprivate": 3134,
      "Ġnorm": 3135,
      "Ġinfluence": 3136,
      "ection": 3137,
      "ected": 3138,
      "ĠRichard": 3139,
      "Ġdeaths": 3140,
      "ĠHenry": 3141,
      "ĠÂ": 3142,
      "Ġhous": 3143,
      "Ġlo": 3144,
      "Ġreferred": 3145,
      "ras": 3146,
      "ĠCamb": 3147,
      "Ġseven": 3148,
      "anks": 3149,
      "Ġaltern": 3150,
      "Ġconcept": 3151,
      "ufact": 3152,
      "40": 3153,
      "Ġquest": 3154,
      "Ġur": 3155,
      "ĠDis": 3156,
      "ĠAcademy": 3157,
      "ĠVir": 3158,
      "plement": 3159,
      "lo": 3160,
      "ĠOrder": 3161,
      "cks": 3162,
      "Ġrequired": 3163,
      "Ġ1993": 3164,
      "Ġrelease": 3165,
      "amples": 3166,
      "ength": 3167,
      "Ġconcern": 3168,
      "Ġpen": 3169,
      "ĠMary": 3170,
      "ĠBrazil": 3171,
      "ĠEgypt": 3172,
      "ini": 3173,
      "Ad": 3174,
      "Ġsem": 3175,
      "Ġlab": 3176,
      "Ġaction": 3177,
      "Ġmanufact": 3178,
      "Ġsouthern": 3179,
      "ĠFrom": 3180,
      "Ġ1991": 3181,
      "ĠCompany": 3182,
      "Ġparticularly": 3183,
      "Ġhom": 3184,
      "ĠAngel": 3185,
      "cul": 3186,
      "Ġlet": 3187,
      "azine": 3188,
      "bs": 3189,
      "Ġemer": 3190,
      "ĠBill": 3191,
      "Ġpercent": 3192,
      "ĠFore": 3193,
      "ĠForce": 3194,
      "ola": 3195,
      "Ġwords": 3196,
      "ands": 3197,
      "porary": 3198,
      "ona": 3199,
      "190": 3200,
      "known": 3201,
      "Ġhighest": 3202,
      "Ġrelationship": 3203,
      "Cl": 3204,
      "ĠWashington": 3205,
      "ĠOld": 3206,
      "Ġcases": 3207,
      "Ġanti": 3208,
      "cher": 3209,
      "Ġgre": 3210,
      "ĠMost": 3211,
      "ĠYear": 3212,
      "Ġ2022": 3213,
      "ĠScot": 3214,
      "idents": 3215,
      "Ġveh": 3216,
      "FL": 3217,
      "Ġtar": 3218,
      "Ġcreat": 3219,
      "Ġsitu": 3220,
      "itiz": 3221,
      "ĠChe": 3222,
      "Ġloss": 3223,
      "Ġdomin": 3224,
      "ĠCenter": 3225,
      "ĠInstitute": 3226,
      "Ġplaced": 3227,
      "Ġang": 3228,
      "Ġamount": 3229,
      "Ġreached": 3230,
      "ĠBut": 3231,
      "ients": 3232,
      "Ġmedia": 3233,
      "Ġconsider": 3234,
      "vert": 3235,
      "Ġsongs": 3236,
      "eds": 3237,
      "iences": 3238,
      "Ġproducer": 3239,
      "elves": 3240,
      "Ġtradition": 3241,
      "aying": 3242,
      "ĠIII": 3243,
      "ida": 3244,
      "pon": 3245,
      "ffer": 3246,
      "ĠTexas": 3247,
      "lying": 3248,
      "Ġplaying": 3249,
      "AR": 3250,
      "ĠIm": 3251,
      "writer": 3252,
      "Ġtrack": 3253,
      "ĠLouis": 3254,
      "Ġspecific": 3255,
      "Ġ/": 3256,
      "ĠLiber": 3257,
      "reme": 3258,
      "Ġremains": 3259,
      "Ġhit": 3260,
      "Ġ29": 3261,
      "Ġmach": 3262,
      "itude": 3263,
      "ĠFootball": 3264,
      "urity": 3265,
      "Ġbirth": 3266,
      "ophy": 3267,
      "ĠItaly": 3268,
      "Ġwebsite": 3269,
      "Ġstated": 3270,
      "Ġunderst": 3271,
      "ĠSmith": 3272,
      "unk": 3273,
      "ĠMusic": 3274,
      "Ġprofessional": 3275,
      "Ġpersonal": 3276,
      "Ġforeign": 3277,
      "Ġnuc": 3278,
      "Ġcenter": 3279,
      "Ġsports": 3280,
      "Ġmission": 3281,
      "Ġlarger": 3282,
      "ĠBest": 3283,
      "ĠColumb": 3284,
      "Ġdestroy": 3285,
      "Ġfa": 3286,
      "asion": 3287,
      "annel": 3288,
      "ancial": 3289,
      "Ġdefe": 3290,
      "Ġdisp": 3291,
      "Ġeffort": 3292,
      "uit": 3293,
      "alled": 3294,
      "back": 3295,
      "Ġmedal": 3296,
      "arter": 3297,
      "Ġteams": 3298,
      "Ġinvolved": 3299,
      "yr": 3300,
      "isions": 3301,
      "Ġrace": 3302,
      "ĠAlbert": 3303,
      "sec": 3304,
      "Ġbeginning": 3305,
      "60": 3306,
      "ĠTown": 3307,
      "ĠJose": 3308,
      "ĠSuper": 3309,
      "ĠCommun": 3310,
      "elled": 3311,
      "Wh": 3312,
      "pir": 3313,
      "rate": 3314,
      "itz": 3315,
      "sen": 3316,
      "edy": 3317,
      "ĠVol": 3318,
      "=\"": 3319,
      "Ġclear": 3320,
      "ĠDutch": 3321,
      "Ġdise": 3322,
      "ĠConf": 3323,
      "Ġmathem": 3324,
      "Ġinj": 3325,
      "ĠDon": 3326,
      "Ġsat": 3327,
      "Ġbelieved": 3328,
      "Ġlog": 3329,
      "ĠNorthern": 3330,
      "ipl": 3331,
      "ĠRev": 3332,
      "Ġlonger": 3333,
      "Ġ:": 3334,
      "Ġboard": 3335,
      "Ġappointed": 3336,
      "ĠProvince": 3337,
      "Ġfell": 3338,
      "ĠClub": 3339,
      "ources": 3340,
      "Ġremov": 3341,
      "Ġshows": 3342,
      "Ġsource": 3343,
      "Ġgra": 3344,
      "owers": 3345,
      "Ġriver": 3346,
      "anned": 3347,
      "Ġmatch": 3348,
      "Ġtowards": 3349,
      "ĠMark": 3350,
      "Ġmechan": 3351,
      "Ġcaused": 3352,
      "Ġlittle": 3353,
      "ictor": 3354,
      "Ġmight": 3355,
      "Ġpoet": 3356,
      "Ġindependent": 3357,
      "Ġscreen": 3358,
      "Ġoperations": 3359,
      "oper": 3360,
      "Ġsequ": 3361,
      "ĠAsia": 3362,
      "ĠRecords": 3363,
      "ĠServ": 3364,
      "Ġactress": 3365,
      "Ġmajority": 3366,
      "Ġtax": 3367,
      "Ġtraining": 3368,
      "Ġreading": 3369,
      "Ġdam": 3370,
      "NA": 3371,
      "press": 3372,
      "Ġlack": 3373,
      "Ġearlier": 3374,
      "Ġhydro": 3375,
      "ĠGames": 3376,
      "anded": 3377,
      "Ġsigned": 3378,
      "omer": 3379,
      "Ġgod": 3380,
      "ĠGra": 3381,
      "27": 3382,
      "ER": 3383,
      "ta": 3384,
      "ĠBat": 3385,
      "ĠIf": 3386,
      "Ġcome": 3387,
      "ension": 3388,
      "Ġepisode": 3389,
      "ĠMass": 3390,
      "Ġceleb": 3391,
      "Ġvia": 3392,
      "arly": 3393,
      "stant": 3394,
      "Ġpractice": 3395,
      "Ġ1950": 3396,
      "aught": 3397,
      "tra": 3398,
      "ultural": 3399,
      "Ġdraw": 3400,
      "ĠMet": 3401,
      "Ġoil": 3402,
      "Ġbehav": 3403,
      "obal": 3404,
      "ado": 3405,
      "Ġchanges": 3406,
      "Ġdaughter": 3407,
      "Ġliving": 3408,
      "mselves": 3409,
      "ĠIsrael": 3410,
      "ĠHistor": 3411,
      "ender": 3412,
      "80": 3413,
      "Ġenvironment": 3414,
      "Ġrule": 3415,
      "hing": 3416,
      "Ġbank": 3417,
      "Ġchanged": 3418,
      "ĠCons": 3419,
      "iant": 3420,
      "ĠOp": 3421,
      "Ġtravel": 3422,
      "Ġwriting": 3423,
      "Ġmostly": 3424,
      "This": 3425,
      "Ġthemselves": 3426,
      "Ġacid": 3427,
      "De": 3428,
      "Ġsum": 3429,
      "ĠPet": 3430,
      "Ġtransfer": 3431,
      "Ġunits": 3432,
      "ena": 3433,
      "Ġprimary": 3434,
      "During": 3435,
      "embly": 3436,
      "urd": 3437,
      "Ġnewsp": 3438,
      "change": 3439,
      "Ġcontract": 3440,
      "Ġdivision": 3441,
      "king": 3442,
      "Ġ1989": 3443,
      "Ġincreasing": 3444,
      "Ġtoo": 3445,
      "uals": 3446,
      "ĠTom": 3447,
      "Ġ1986": 3448,
      "Ġlegal": 3449,
      "Ġstage": 3450,
      "ounds": 3451,
      "ĠMod": 3452,
      "ĠRob": 3453,
      "Ġtoday": 3454,
      "olf": 3455,
      "board": 3456,
      "Ġprevent": 3457,
      "Ġbuildings": 3458,
      "stra": 3459,
      "Ġcut": 3460,
      "ĠSant": 3461,
      "Ġris": 3462,
      "ĠMany": 3463,
      "ĠInter": 3464,
      "orial": 3465,
      "Ġlines": 3466,
      "Ġdom": 3467,
      "ests": 3468,
      "Ġgrowth": 3469,
      "Ġdig": 3470,
      "ift": 3471,
      "Ġsymb": 3472,
      "Pl": 3473,
      "Ġcontinu": 3474,
      "Ġinterp": 3475,
      "leg": 3476,
      "pected": 3477,
      "Ġincrease": 3478,
      "Ġess": 3479,
      "Ġeffects": 3480,
      "ĠRussia": 3481,
      "road": 3482,
      "ĠPe": 3483,
      "Ġsett": 3484,
      "Ġminor": 3485,
      "ittee": 3486,
      "Ġever": 3487,
      "Ġcrew": 3488,
      "Ġbelow": 3489,
      "Ġconv": 3490,
      "Ġstudies": 3491,
      "Ġfle": 3492,
      "ĠTor": 3493,
      "ĠEastern": 3494,
      "ping": 3495,
      "uz": 3496,
      "Ġdocument": 3497,
      "Ġsurface": 3498,
      "Ġconditions": 3499,
      "spe": 3500,
      "itted": 3501,
      "Ġwriter": 3502,
      "Ġ1988": 3503,
      "Ġproducts": 3504,
      "Ġsettle": 3505,
      "Ġcommonly": 3506,
      "ada": 3507,
      "ĠRail": 3508,
      "Ġtypes": 3509,
      "ĠPers": 3510,
      "ĠSwed": 3511,
      "Ġplant": 3512,
      "Ġfuture": 3513,
      "ĠCast": 3514,
      "ĠAthen": 3515,
      "ĠCroat": 3516,
      "ledge": 3517,
      "Ġmultiple": 3518,
      "Ġlimited": 3519,
      "irit": 3520,
      "ĠâĢ": 3521,
      "Ġblood": 3522,
      "Ġastron": 3523,
      "ĠKn": 3524,
      "Ġleader": 3525,
      "Ġtypically": 3526,
      "ready": 3527,
      "Ġindic": 3528,
      "Ġwidely": 3529,
      "Ġ185": 3530,
      "irt": 3531,
      "met": 3532,
      "pan": 3533,
      "ros": 3534,
      "ĠIslam": 3535,
      "ned": 3536,
      "Ġcomplete": 3537,
      "align": 3538,
      "Ġmetal": 3539,
      "ĠJust": 3540,
      "Ġstations": 3541,
      "Ġgoal": 3542,
      "Ġwhom": 3543,
      "resp": 3544,
      "ĠKore": 3545,
      "Other": 3546,
      "Ġlikely": 3547,
      "TV": 3548,
      "Ġcause": 3549,
      "ĠJer": 3550,
      "itors": 3551,
      "place": 3552,
      "Ġsources": 3553,
      "atre": 3554,
      "Ġdefin": 3555,
      "Ġnature": 3556,
      "ĠMad": 3557,
      "Ġcollection": 3558,
      "cel": 3559,
      "ya": 3560,
      "oke": 3561,
      "Ġartists": 3562,
      "...": 3563,
      "ĠCongress": 3564,
      "Ġproblems": 3565,
      "Ġacademic": 3566,
      "ĠJewish": 3567,
      "peror": 3568,
      "ĠParis": 3569,
      "bed": 3570,
      "eck": 3571,
      "Ġcred": 3572,
      "Ġelement": 3573,
      "Ġsele": 3574,
      "ocratic": 3575,
      "ollowing": 3576,
      "Ġrequire": 3577,
      "Ġwood": 3578,
      "ĠVer": 3579,
      "Ġ1984": 3580,
      "isation": 3581,
      "Ġalways": 3582,
      "Ġadditional": 3583,
      "Ġvariety": 3584,
      "rison": 3585,
      "uman": 3586,
      "Ġactive": 3587,
      "ih": 3588,
      "Ġcou": 3589,
      "Ġsurround": 3590,
      "Ġnar": 3591,
      "Ġnecess": 3592,
      "Ġnumerous": 3593,
      "ĠWhite": 3594,
      "itt": 3595,
      "Ġwhether": 3596,
      "Ġfeatured": 3597,
      "Ġens": 3598,
      "vey": 3599,
      "Ġhor": 3600,
      "Ġdeal": 3601,
      "ota": 3602,
      "aring": 3603,
      "Ġdyn": 3604,
      "ĠBow": 3605,
      "Ġfourth": 3606,
      "Ġsaf": 3607,
      "Ġstop": 3608,
      "Ġ1985": 3609,
      "Ġwriters": 3610,
      "Ġsoftware": 3611,
      "Ġdram": 3612,
      "etball": 3613,
      "Ġeas": 3614,
      "Ġmor": 3615,
      "Ġâ": 3616,
      "AT": 3617,
      "Ġnight": 3618,
      "ĠMont": 3619,
      "ĠOtt": 3620,
      "Ġsal": 3621,
      "Ġbehind": 3622,
      "Ġproduce": 3623,
      "Ġproblem": 3624,
      "Ġrap": 3625,
      "Ġcand": 3626,
      "Ġcode": 3627,
      "ĠMel": 3628,
      "Ġdecided": 3629,
      "Ġrecent": 3630,
      "ĠClass": 3631,
      "ĠPortug": 3632,
      "ging": 3633,
      "aled": 3634,
      "ĠParliament": 3635,
      "ĠBulg": 3636,
      "izing": 3637,
      "Ġequip": 3638,
      "Ġhistorical": 3639,
      "enes": 3640,
      "ables": 3641,
      "ream": 3642,
      "Ġgive": 3643,
      "Ġsoon": 3644,
      "Ġkeep": 3645,
      "ously": 3646,
      "stein": 3647,
      "rative": 3648,
      "za": 3649,
      "la": 3650,
      "Eng": 3651,
      "SI": 3652,
      "Ġalready": 3653,
      "29": 3654,
      "Ġsus": 3655,
      "Ġbur": 3656,
      "ĠScottish": 3657,
      "Ġfemale": 3658,
      "rich": 3659,
      "ĠHill": 3660,
      "ĠDou": 3661,
      "Am": 3662,
      "ĠGreen": 3663,
      "ca": 3664,
      "Ġcentre": 3665,
      "Ġeconomy": 3666,
      "ĠDen": 3667,
      "Ġesc": 3668,
      "ivity": 3669,
      "hold": 3670,
      "onse": 3671,
      "ĠSar": 3672,
      "Ġconcent": 3673,
      "Ph": 3674,
      "Ġunit": 3675,
      "Ġseparate": 3676,
      "ĠAut": 3677,
      "ĠMiddle": 3678,
      "ĠDu": 3679,
      "26": 3680,
      "28": 3681,
      "axim": 3682,
      "Ġterritory": 3683,
      "ĠSince": 3684,
      "Ġcust": 3685,
      "Ġbetter": 3686,
      "47": 3687,
      "heast": 3688,
      "Ġbatt": 3689,
      "ĠMiss": 3690,
      "ita": 3691,
      "ĠFin": 3692,
      "ĠDepartment": 3693,
      "Ġwind": 3694,
      "Ġfif": 3695,
      "ali": 3696,
      "Ġbillion": 3697,
      "ĠInt": 3698,
      "Ġsea": 3699,
      "ĠTwo": 3700,
      "ĠGr": 3701,
      "Ġ1983": 3702,
      "ĠTurk": 3703,
      "iller": 3704,
      "mark": 3705,
      "ala": 3706,
      "New": 3707,
      "ĠCub": 3708,
      "ĠFre": 3709,
      "Ġlocation": 3710,
      "ĠSystem": 3711,
      "Ġ#": 3712,
      "omy": 3713,
      "vention": 3714,
      "Ġmove": 3715,
      "Ġapproximately": 3716,
      "Ġdirected": 3717,
      "onic": 3718,
      "Ġreason": 3719,
      "Ġproposed": 3720,
      "ĠVictor": 3721,
      "Ġphysical": 3722,
      "Ġdiscovered": 3723,
      "respond": 3724,
      "bre": 3725,
      "ĠFilm": 3726,
      "Ġ31": 3727,
      "amily": 3728,
      "acter": 3729,
      "Ġfinished": 3730,
      "Ġdirectly": 3731,
      "Ġregions": 3732,
      "Ġcultural": 3733,
      "Ind": 3734,
      "Ġgas": 3735,
      "rus": 3736,
      "Ġcard": 3737,
      "Ġlatter": 3738,
      "Ġmention": 3739,
      "Ġbene": 3740,
      "Ġi": 3741,
      "Ġpay": 3742,
      "igr": 3743,
      "ĠWinter": 3744,
      "ny": 3745,
      "Ġtroops": 3746,
      "anced": 3747,
      "Ġcontains": 3748,
      "Ġbreak": 3749,
      "adium": 3750,
      "anda": 3751,
      "Ġtreatment": 3752,
      "fit": 3753,
      "ĠBab": 3754,
      "Ġpolicy": 3755,
      "Ġdial": 3756,
      "Ġlength": 3757,
      "earch": 3758,
      "Ġ1982": 3759,
      "Ġpreviously": 3760,
      "cont": 3761,
      "Ġpie": 3762,
      "ĠNot": 3763,
      "Ġ1981": 3764,
      "189": 3765,
      "irds": 3766,
      "pr": 3767,
      "roll": 3768,
      "Ġlook": 3769,
      "Ġsuffer": 3770,
      "Ġcarbon": 3771,
      "ĠBrown": 3772,
      "Ġended": 3773,
      "Ġtaking": 3774,
      "Ġfinancial": 3775,
      "ospital": 3776,
      "ĠLeg": 3777,
      "Ġdegree": 3778,
      "Ġcurrently": 3779,
      "orpor": 3780,
      "Ġsupported": 3781,
      "Ġprograms": 3782,
      "va": 3783,
      "Ġresist": 3784,
      "ĠBell": 3785,
      "Ġdiscuss": 3786,
      "alls": 3787,
      "Ġtechnology": 3788,
      "70": 3789,
      "Ġ1987": 3790,
      "ĠAnn": 3791,
      "Ġprior": 3792,
      "Ġnoted": 3793,
      "rupt": 3794,
      "war": 3795,
      "Ġimmedi": 3796,
      "nic": 3797,
      "iance": 3798,
      "Ġ+": 3799,
      "Ġstep": 3800,
      "rey": 3801,
      "ĠArmen": 3802,
      "Ġwinn": 3803,
      "ĠLake": 3804,
      "izations": 3805,
      "aud": 3806,
      "bl": 3807,
      "iro": 3808,
      "oring": 3809,
      "Ġrepresented": 3810,
      "ĠMil": 3811,
      "ĠAD": 3812,
      "Ġquant": 3813,
      "Ã¤": 3814,
      "Ġelectron": 3815,
      "use": 3816,
      "ship": 3817,
      "Ġflight": 3818,
      "Ġlaws": 3819,
      "Notes": 3820,
      "Sh": 3821,
      "ĠĠĊ": 3822,
      "ĠMur": 3823,
      "akers": 3824,
      "Ġappears": 3825,
      "Ġforest": 3826,
      "aland": 3827,
      "acing": 3828,
      "ĠBig": 3829,
      "ĠLos": 3830,
      "Ġconfl": 3831,
      "Ġbaseball": 3832,
      "Ġwinning": 3833,
      "Ġbox": 3834,
      "Ġwestern": 3835,
      "Con": 3836,
      "thlet": 3837,
      "Ġparent": 3838,
      "ĠSpain": 3839,
      "Ġresponse": 3840,
      "Ġera": 3841,
      "Ġawarded": 3842,
      "part": 3843,
      "Ġissues": 3844,
      "FA": 3845,
      "ĠNavy": 3846,
      "Ġdefined": 3847,
      "Ġedition": 3848,
      "pose": 3849,
      "ĠSing": 3850,
      "ĠGo": 3851,
      "Ġprec": 3852,
      "ĠJoseph": 3853,
      "Ġlay": 3854,
      "ĠÎ": 3855,
      "Ġwide": 3856,
      "icted": 3857,
      "chester": 3858,
      "Ã³n": 3859,
      "ĠAk": 3860,
      "amm": 3861,
      "Ġthreat": 3862,
      "Ġsmaller": 3863,
      "Ġstatus": 3864,
      "BS": 3865,
      "gely": 3866,
      "Ġpurch": 3867,
      "emporary": 3868,
      "Early": 3869,
      "ano": 3870,
      "rying": 3871,
      "ĠMartin": 3872,
      "Ġpsych": 3873,
      "Ġvari": 3874,
      "Ġcitiz": 3875,
      "ensus": 3876,
      "ĠDel": 3877,
      "Ġsection": 3878,
      "Ġexcept": 3879,
      "Ġvictory": 3880,
      "bury": 3881,
      "rown": 3882,
      "Ġmicro": 3883,
      "enth": 3884,
      "ĠCa": 3885,
      "otic": 3886,
      "with": 3887,
      "ises": 3888,
      "ils": 3889,
      "ĠDo": 3890,
      "ghan": 3891,
      "Ġcollege": 3892,
      "aska": 3893,
      "wide": 3894,
      "Ġdiss": 3895,
      "Ġbecoming": 3896,
      "irm": 3897,
      "ares": 3898,
      "Ġagric": 3899,
      "ĠCommission": 3900,
      "Ġdouble": 3901,
      "well": 3902,
      "ĠSaint": 3903,
      "Ġnearly": 3904,
      "ĠEr": 3905,
      "Ġclaimed": 3906,
      "ĠVirgin": 3907,
      "Ġ1976": 3908,
      "ĠIslands": 3909,
      "Ġmoney": 3910,
      "ela": 3911,
      "Ġmainly": 3912,
      "Ġshown": 3913,
      "Ġalbums": 3914,
      "Ġfarm": 3915,
      "ĠBor": 3916,
      "illa": 3917,
      "ĠIrish": 3918,
      "las": 3919,
      "Ġheav": 3920,
      "ĠSun": 3921,
      "Ġprison": 3922,
      "Ġmusical": 3923,
      "Ġmakes": 3924,
      "inet": 3925,
      "class": 3926,
      "Ġ1979": 3927,
      "hi": 3928,
      "Ġaddress": 3929,
      "ye": 3930,
      "Ġbound": 3931,
      "agn": 3932,
      "Ġ1972": 3933,
      "ider": 3934,
      "Ġissue": 3935,
      "Ġestimated": 3936,
      "bur": 3937,
      "ĠSir": 3938,
      "ips": 3939,
      "Ġnation": 3940,
      "Ġdivided": 3941,
      "Ġdebut": 3942,
      "ĠAC": 3943,
      "ĠBre": 3944,
      "Ġcreate": 3945,
      "Ġforced": 3946,
      "ĠJud": 3947,
      "Ġcarried": 3948,
      "aters": 3949,
      "riage": 3950,
      "Ġimplement": 3951,
      "BA": 3952,
      "Ġcenturies": 3953,
      "Ġfamous": 3954,
      "retary": 3955,
      "ĠPan": 3956,
      "Ġ183": 3957,
      "dis": 3958,
      "ople": 3959,
      "ĠBerlin": 3960,
      "Ġidea": 3961,
      "Ġanalysis": 3962,
      "ien": 3963,
      "inem": 3964,
      "ĠSouthern": 3965,
      "rief": 3966,
      "Ġcorrespond": 3967,
      "Ġfocus": 3968,
      "Ġhockey": 3969,
      "Ġinvestig": 3970,
      "Ġaccom": 3971,
      "ĠHung": 3972,
      "Ġcompetition": 3973,
      "Ġpolice": 3974,
      "ĠMexico": 3975,
      "ittle": 3976,
      "arc": 3977,
      "ĠCarl": 3978,
      "Ġsociety": 3979,
      "Ġmagn": 3980,
      "Ġded": 3981,
      "Ġquick": 3982,
      "itation": 3983,
      "icians": 3984,
      "Ġadopted": 3985,
      "ault": 3986,
      "uge": 3987,
      "erve": 3988,
      "ĠPrize": 3989,
      "Ġpath": 3990,
      "ĠSqu": 3991,
      "ĠCivil": 3992,
      "oles": 3993,
      "ĠMu": 3994,
      "ducation": 3995,
      "inent": 3996,
      "Ġmaintain": 3997,
      "Ġreve": 3998,
      "verse": 3999,
      "Ġsummer": 4000,
      "Ġarran": 4001,
      "ĠPlay": 4002,
      "Mus": 4003,
      "Ġspeed": 4004,
      "ĠCarol": 4005,
      "Ġscholars": 4006,
      "ĠDef": 4007,
      "Ġcateg": 4008,
      "onia": 4009,
      "Ġruns": 4010,
      "zech": 4011,
      "ĠGovernment": 4012,
      "Ġtable": 4013,
      "Ġdone": 4014,
      "ĠMuslim": 4015,
      "Ġdate": 4016,
      "umni": 4017,
      "Ġdetail": 4018,
      "ato": 4019,
      "Ġhighly": 4020,
      "band": 4021,
      "Ġlargely": 4022,
      "Ġproperties": 4023,
      "Ġclosed": 4024,
      "Ã¨": 4025,
      "ĠEv": 4026,
      "Ġ1975": 4027,
      "Ġdefeated": 4028,
      "Ġconver": 4029,
      "ĠOl": 4030,
      "ĠBob": 4031,
      "SA": 4032,
      "win": 4033,
      "amin": 4034,
      "Ġheavy": 4035,
      "Ġcomplet": 4036,
      "ologist": 4037,
      "ĠGeorg": 4038,
      "Ġqual": 4039,
      "ĠTechn": 4040,
      "Ġbig": 4041,
      "ĠWales": 4042,
      "Ġexc": 4043,
      "lar": 4044,
      "ĠSk": 4045,
      "Ġgrand": 4046,
      "astic": 4047,
      "ĠFlor": 4048,
      "ĠMin": 4049,
      "ĠTele": 4050,
      "throp": 4051,
      "Ġdistinct": 4052,
      "anguage": 4053,
      "Ġpoor": 4054,
      "Ġdisplay": 4055,
      "oo": 4056,
      "Ġdefeat": 4057,
      "ĠBank": 4058,
      "Ġ60": 4059,
      "Ġinitial": 4060,
      "alle": 4061,
      "otion": 4062,
      "ĠJim": 4063,
      "fficial": 4064,
      "English": 4065,
      "Ġdrop": 4066,
      "ĠInc": 4067,
      "ugg": 4068,
      "Ġlevels": 4069,
      "Ġletter": 4070,
      "yer": 4071,
      "Ġfriend": 4072,
      "Ġwhole": 4073,
      "ĠWall": 4074,
      "eff": 4075,
      "ĠMore": 4076,
      "ĠScotland": 4077,
      "ĠDire": 4078,
      "Ġproperty": 4079,
      "Living": 4080,
      "ĠHow": 4081,
      "Ġartist": 4082,
      "ĠCamp": 4083,
      "Ġeastern": 4084,
      "ĠOff": 4085,
      "ĠUnder": 4086,
      "Ġunc": 4087,
      "Ġbomb": 4088,
      "Ġ1974": 4089,
      "ĠMos": 4090,
      "ĠScience": 4091,
      "arsh": 4092,
      "Ġestablishments": 4093,
      "Ġgreater": 4094,
      "gor": 4095,
      "Ġice": 4096,
      "Ġprimarily": 4097,
      "Ġthous": 4098,
      "imal": 4099,
      "igen": 4100,
      "overs": 4101,
      "ells": 4102,
      "Ġrules": 4103,
      "apers": 4104,
      "ĠZealand": 4105,
      "Ġcolor": 4106,
      "Ap": 4107,
      "ronze": 4108,
      "Ġsen": 4109,
      "Ġ1978": 4110,
      "Ġchemical": 4111,
      "gent": 4112,
      "ĠMa": 4113,
      "Ġships": 4114,
      "ĠÃĩ": 4115,
      "ĠSeries": 4116,
      "urches": 4117,
      "ĠSur": 4118,
      "Ġannual": 4119,
      "Ġax": 4120,
      "ĠFred": 4121,
      "Ġanimals": 4122,
      "olved": 4123,
      "Ġremaining": 4124,
      "ĠAngeles": 4125,
      "Bl": 4126,
      "ĠLord": 4127,
      "isms": 4128,
      "ĠThat": 4129,
      "Ġfeature": 4130,
      "ructed": 4131,
      "Ġdecision": 4132,
      "Ġlived": 4133,
      "Ġlaunched": 4134,
      "Ġhours": 4135,
      "Ġsym": 4136,
      "icago": 4137,
      "ĠBase": 4138,
      "Ġenough": 4139,
      "Ġweap": 4140,
      "Ġpassed": 4141,
      "Ġmagazine": 4142,
      "TA": 4143,
      "ias": 4144,
      "Ġgraph": 4145,
      "Ġprem": 4146,
      "Ġappearance": 4147,
      "ĠJews": 4148,
      "90": 4149,
      "ĠFer": 4150,
      "Ġcompon": 4151,
      "Ġdespite": 4152,
      "DP": 4153,
      "wer": 4154,
      "Ġcoin": 4155,
      "Ġborder": 4156,
      "ĠBah": 4157,
      "ĠKe": 4158,
      "Ġcontroll": 4159,
      "Ġfailed": 4160,
      "Ġcandid": 4161,
      "ĠCard": 4162,
      "ĠYoung": 4163,
      "ĠBang": 4164,
      "ĠOx": 4165,
      "ĠAlf": 4166,
      "Ġtherefore": 4167,
      "Ġlegisl": 4168,
      "Ġchief": 4169,
      "Ġorganization": 4170,
      "phas": 4171,
      "Ġfederal": 4172,
      "ette": 4173,
      "Ġplants": 4174,
      "Ġspent": 4175,
      "ĠStar": 4176,
      "Ġ184": 4177,
      "Ġdon": 4178,
      "Ġinhab": 4179,
      "jan": 4180,
      "rier": 4181,
      "Ġintended": 4182,
      "yan": 4183,
      "Ġ...": 4184,
      "ĠSol": 4185,
      "ĠLab": 4186,
      "cean": 4187,
      "Ġ1977": 4188,
      "Ġactivities": 4189,
      "ĠRock": 4190,
      "allen": 4191,
      "Ġconsists": 4192,
      "Ġrare": 4193,
      "Ġpotential": 4194,
      "ption": 4195,
      "Ġkind": 4196,
      "Ġpaper": 4197,
      "ĠPrem": 4198,
      "ricket": 4199,
      "According": 4200,
      "ĠLife": 4201,
      "ĠEle": 4202,
      "Ġtakes": 4203,
      "ulations": 4204,
      "umed": 4205,
      "duce": 4206,
      "ĠOlympic": 4207,
      "Ġspl": 4208,
      "Ġsoldiers": 4209,
      "cing": 4210,
      "ĠSund": 4211,
      "ying": 4212,
      "rif": 4213,
      "Ġrat": 4214,
      "Ġbask": 4215,
      "more": 4216,
      "ĠRome": 4217,
      "Ġactivity": 4218,
      "ĠRh": 4219,
      "Ġstaff": 4220,
      "ects": 4221,
      "ordin": 4222,
      "velopment": 4223,
      "Ġmunicipal": 4224,
      "ĠLee": 4225,
      "Ġdrug": 4226,
      "ĠSil": 4227,
      "ĠPac": 4228,
      "oma": 4229,
      "ĠOut": 4230,
      "Ġmonth": 4231,
      "Ġ1930": 4232,
      "ĠCur": 4233,
      "Ġheart": 4234,
      "Ġ1971": 4235,
      "ĠAv": 4236,
      "Ġmiddle": 4237,
      "Ġhapp": 4238,
      "cles": 4239,
      "Ġbasis": 4240,
      "hire": 4241,
      "Ġ1968": 4242,
      "Ġhot": 4243,
      "undred": 4244,
      "Ġ1969": 4245,
      "Ġfunctions": 4246,
      "Ġinitially": 4247,
      "Ġtemperature": 4248,
      "Ġquestion": 4249,
      "2000": 4250,
      "atur": 4251,
      "Ġrecords": 4252,
      "AM": 4253,
      "mission": 4254,
      "Ġult": 4255,
      "ĠEdward": 4256,
      "Ġwoman": 4257,
      "Ġcounter": 4258,
      "imb": 4259,
      "Ġprovides": 4260,
      "Ġvon": 4261,
      "ĠJul": 4262,
      "aling": 4263,
      "ĠTimes": 4264,
      "ĠPublic": 4265,
      "ested": 4266,
      "Ġentered": 4267,
      "ĠAlexand": 4268,
      "Ġuniversity": 4269,
      "Ġnews": 4270,
      "Ġrelatively": 4271,
      "Ġtarget": 4272,
      "add": 4273,
      "Ġmethods": 4274,
      "SC": 4275,
      "enh": 4276,
      "ĠBos": 4277,
      "ully": 4278,
      "stitution": 4279,
      "which": 4280,
      "col": 4281,
      "ĠPenn": 4282,
      "Ġmedical": 4283,
      "Further": 4284,
      "asty": 4285,
      "ultan": 4286,
      "Ġindividuals": 4287,
      "mond": 4288,
      "akh": 4289,
      "ĠAfghan": 4290,
      "Ġscript": 4291,
      "ĠCzech": 4292,
      "ech": 4293,
      "ĠFestival": 4294,
      "odies": 4295,
      "Ġcompared": 4296,
      "Ġthr": 4297,
      "Ġblock": 4298,
      "Ġroute": 4299,
      "iga": 4300,
      "Ġexperience": 4301,
      "Ġpressure": 4302,
      "kins": 4303,
      "yt": 4304,
      "ĠBBC": 4305,
      "Ġoffered": 4306,
      "omic": 4307,
      "Ġonline": 4308,
      "Ġ1920": 4309,
      "Ġcannot": 4310,
      "Ġregional": 4311,
      "Ġgradu": 4312,
      "Ġconstitution": 4313,
      "75": 4314,
      "mad": 4315,
      "Ġdemonst": 4316,
      "Ġ1973": 4317,
      "ograp": 4318,
      "Ġcells": 4319,
      "Ġshot": 4320,
      "ns": 4321,
      "Ġhyp": 4322,
      "ĠLove": 4323,
      "Ġmemory": 4324,
      "ĠMah": 4325,
      "ĠJohnson": 4326,
      "ĠÄ": 4327,
      "Ġcomment": 4328,
      "obile": 4329,
      "Ġurban": 4330,
      "ĠProt": 4331,
      "Ġstudent": 4332,
      "Ġdisease": 4333,
      "Ġpark": 4334,
      "oud": 4335,
      "Ã¼r": 4336,
      "Ġnomin": 4337,
      "Ġspread": 4338,
      "Ġopening": 4339,
      "Ġliterature": 4340,
      "ua": 4341,
      "Ġbass": 4342,
      "opher": 4343,
      "ugby": 4344,
      "ublican": 4345,
      "ĠApple": 4346,
      "ĠBuild": 4347,
      "Ġislands": 4348,
      "AC": 4349,
      "AN": 4350,
      "ellig": 4351,
      "Ġbor": 4352,
      "Ġcourse": 4353,
      "osis": 4354,
      "Ġexhib": 4355,
      "Ġimpact": 4356,
      "ĠLibrary": 4357,
      "illed": 4358,
      "ĠAmericans": 4359,
      "ansas": 4360,
      "Ġseat": 4361,
      "Ġ2023": 4362,
      "Ġcomposed": 4363,
      "oir": 4364,
      "icine": 4365,
      "Ġspect": 4366,
      "anning": 4367,
      "Ġofficer": 4368,
      "ĠAh": 4369,
      "Ġchart": 4370,
      "ricts": 4371,
      "ĠNews": 4372,
      "ĠRadio": 4373,
      "Ġ1945": 4374,
      "Ġstreng": 4375,
      "imin": 4376,
      "Ġautom": 4377,
      "Ġextra": 4378,
      "encies": 4379,
      "azz": 4380,
      "Ġpresence": 4381,
      "ĠPrince": 4382,
      "ĠCorn": 4383,
      "Ġscored": 4384,
      "Ġsens": 4385,
      "Ġsynt": 4386,
      "ĠChicago": 4387,
      "Ġfort": 4388,
      "Ġcombined": 4389,
      "Ġinn": 4390,
      "oston": 4391,
      "Ġinterview": 4392,
      "Ġclubs": 4393,
      "Ġmess": 4394,
      "Ġprogramming": 4395,
      "Ġbrief": 4396,
      "Ġyet": 4397,
      "Ġrunning": 4398,
      "Ġ)": 4399,
      "Ġcommunities": 4400,
      "Ġprobably": 4401,
      "Ġfix": 4402,
      "ĠBal": 4403,
      "Ġarrest": 4404,
      "ector": 4405,
      "ennis": 4406,
      "SP": 4407,
      "ĠNaz": 4408,
      "ithm": 4409,
      "Ġsearch": 4410,
      "Ġclimate": 4411,
      "ĠAsh": 4412,
      "ĠLand": 4413,
      "ibly": 4414,
      "ansion": 4415,
      "venue": 4416,
      "Ġreform": 4417,
      "Ġprin": 4418,
      "ĠBern": 4419,
      "Ġlic": 4420,
      "Ġcontinue": 4421,
      "fficient": 4422,
      "iated": 4423,
      "wan": 4424,
      "ĠUr": 4425,
      "Ġcompl": 4426,
      "Is": 4427,
      "iring": 4428,
      "Ġtrue": 4429,
      "Ġcontrovers": 4430,
      "ĠBroad": 4431,
      "Ġturned": 4432,
      "ĠLu": 4433,
      "Ġresulting": 4434,
      "ken": 4435,
      "Ġpric": 4436,
      "Ġability": 4437,
      "2006": 4438,
      "Ġneeded": 4439,
      "ĠColumbia": 4440,
      "ilies": 4441,
      "iques": 4442,
      "inistry": 4443,
      "Ġpresented": 4444,
      "ety": 4445,
      "Ġoperation": 4446,
      "Ġbr": 4447,
      "ĠTheir": 4448,
      "ecause": 4449,
      "aily": 4450,
      "Ġ1940": 4451,
      "Ġolder": 4452,
      "ĠJo": 4453,
      "ĠSummer": 4454,
      "ĠPre": 4455,
      "aya": 4456,
      "Ġseasons": 4457,
      "bro": 4458,
      "ĠUp": 4459,
      "Ġcommission": 4460,
      "Ġsucceed": 4461,
      "can": 4462,
      "coh": 4463,
      "fect": 4464,
      "Ġprovince": 4465,
      "Ġindependence": 4466,
      "Ġmeasure": 4467,
      "Ġut": 4468,
      "Ġbring": 4469,
      "oura": 4470,
      "ĠSo": 4471,
      "Ġleaving": 4472,
      "Ġpil": 4473,
      "Ġblue": 4474,
      "Sp": 4475,
      "ĠPo": 4476,
      "ĠTurkish": 4477,
      "Ġpun": 4478,
      "Ġbecomes": 4479,
      "Ġcer": 4480,
      "Ge": 4481,
      "Ġcompar": 4482,
      "ternet": 4483,
      "When": 4484,
      "Ġconqu": 4485,
      "yth": 4486,
      "cluding": 4487,
      "By": 4488,
      "Ġincorpor": 4489,
      "Ġowned": 4490,
      "Ġsuggested": 4491,
      "perial": 4492,
      "ek": 4493,
      "oration": 4494,
      "ĠTim": 4495,
      "ĠBol": 4496,
      "chestra": 4497,
      "ctors": 4498,
      "Ġpeace": 4499,
      "Ġscientific": 4500,
      "ĠSub": 4501,
      "Ġrespectively": 4502,
      "Ġour": 4503,
      "Ġliber": 4504,
      "ĠSocial": 4505,
      "ĠOttoman": 4506,
      "ees": 4507,
      "ĠÅ": 4508,
      "ĠCop": 4509,
      "Ġmathemat": 4510,
      "ambig": 4511,
      "Ġexperiment": 4512,
      "Ġresponsible": 4513,
      "Ġcitizens": 4514,
      "ĠĠĠ": 4515,
      "Ġtrain": 4516,
      "lav": 4517,
      "Ġfinally": 4518,
      "force": 4519,
      "Ġsac": 4520,
      "Ġshare": 4521,
      "ĠBatman": 4522,
      "Ġ1967": 4523,
      "Ġmole": 4524,
      "uls": 4525,
      "Ġenem": 4526,
      "Ġamb": 4527,
      "isco": 4528,
      "ĠArabic": 4529,
      "ĠRevolution": 4530,
      "Ġhar": 4531,
      "Ġbasketball": 4532,
      "istry": 4533,
      "ĠWood": 4534,
      "iform": 4535,
      "Ġmanagement": 4536,
      "Ġrailway": 4537,
      "Ġgun": 4538,
      "ĠFort": 4539,
      "âĢĿ": 4540,
      "65": 4541,
      "Ġalle": 4542,
      "light": 4543,
      "rip": 4544,
      "Ġconne": 4545,
      "Ġknowledge": 4546,
      "ĠCambridge": 4547,
      "Ġ1966": 4548,
      "Ġinstrument": 4549,
      "ĠTro": 4550,
      "Ġnative": 4551,
      "Ġbelong": 4552,
      "cest": 4553,
      "enz": 4554,
      "Ġsubsequently": 4555,
      "Ġnine": 4556,
      "ura": 4557,
      "Ġidentified": 4558,
      "Ġmaterials": 4559,
      "den": 4560,
      "Ġinfluenced": 4561,
      "rete": 4562,
      "opes": 4563,
      "umin": 4564,
      "Ġextended": 4565,
      "Ġcontrast": 4566,
      "Ġlearn": 4567,
      "Ġfriends": 4568,
      "lÄ±": 4569,
      "Ġoperating": 4570,
      "Ġstarting": 4571,
      "Ġindustrial": 4572,
      "ĠQueen": 4573,
      "Ġbehavior": 4574,
      "ĠGreece": 4575,
      "Ġequipment": 4576,
      "OS": 4577,
      "Ġdistance": 4578,
      "35": 4579,
      "List": 4580,
      "Ġcouncil": 4581,
      "Ġdeep": 4582,
      "Ġprogress": 4583,
      "ube": 4584,
      "Ġadj": 4585,
      "188": 4586,
      "yal": 4587,
      "acity": 4588,
      "Ġelections": 4589,
      "Ġstructures": 4590,
      "ĠFlorida": 4591,
      "ĠService": 4592,
      "uff": 4593,
      "oln": 4594,
      "osen": 4595,
      "Ġmatter": 4596,
      "Ġpossess": 4597,
      "ba": 4598,
      "Ġtree": 4599,
      "Ġmountain": 4600,
      "ĠJes": 4601,
      "Ġpattern": 4602,
      "iography": 4603,
      "rie": 4604,
      "ĠManchester": 4605,
      "Se": 4606,
      "ĠFound": 4607,
      "Ġrapid": 4608,
      "Ġreduced": 4609,
      "irl": 4610,
      "aka": 4611,
      "tters": 4612,
      "vement": 4613,
      "ĠBoth": 4614,
      "Ġmuseum": 4615,
      "ographic": 4616,
      "Sc": 4617,
      "ĠMid": 4618,
      "Ġinstitutions": 4619,
      "Ġrisk": 4620,
      "ĠBoston": 4621,
      "Ġclassical": 4622,
      "United": 4623,
      "ersey": 4624,
      "Ġweeks": 4625,
      "ented": 4626,
      "Ġchampionship": 4627,
      "edom": 4628,
      "ĠJack": 4629,
      "Ġfigure": 4630,
      "ulpt": 4631,
      "Ġrecover": 4632,
      "ylvan": 4633,
      "ĠCle": 4634,
      "arters": 4635,
      "nam": 4636,
      "zant": 4637,
      "house": 4638,
      "Ġbott": 4639,
      "Ġlif": 4640,
      "Ġspirit": 4641,
      "mitted": 4642,
      "Ġaccepted": 4643,
      "Ġir": 4644,
      "ĠWind": 4645,
      "Ġcreation": 4646,
      "Ġminutes": 4647,
      "Ġwithd": 4648,
      "agon": 4649,
      "Ġcomes": 4650,
      "Ġbelief": 4651,
      "ederation": 4652,
      "Ġderived": 4653,
      "ĠArts": 4654,
      "ĠColomb": 4655,
      "Ġcharge": 4656,
      "ĠResearch": 4657,
      "Ġlove": 4658,
      "Ġalumni": 4659,
      "Ġhelped": 4660,
      "Ġmachine": 4661,
      "ĠFA": 4662,
      "Ġresulted": 4663,
      "IC": 4664,
      "ID": 4665,
      "ilms": 4666,
      "ĠHealth": 4667,
      "ĠMo": 4668,
      "Ġplays": 4669,
      "hesis": 4670,
      "Ġmom": 4671,
      "ĠBuddh": 4672,
      "iger": 4673,
      "Ġ80": 4674,
      "Ġalternative": 4675,
      "rons": 4676,
      "uan": 4677,
      "ella": 4678,
      "Ġupper": 4679,
      "ĠCommittee": 4680,
      "rical": 4681,
      "rog": 4682,
      "adel": 4683,
      "ĠMem": 4684,
      "uty": 4685,
      "izes": 4686,
      "ocal": 4687,
      "Ġsense": 4688,
      "Ġdu": 4689,
      "Ġdead": 4690,
      "onds": 4691,
      "Ġquickly": 4692,
      "Med": 4693,
      "kin": 4694,
      "Ġgoals": 4695,
      "ĠOs": 4696,
      "Ġcontact": 4697,
      "ĠPacific": 4698,
      "ambiguation": 4699,
      "actions": 4700,
      "Ġdecre": 4701,
      "500": 4702,
      "ners": 4703,
      "Ġtons": 4704,
      "ĠIll": 4705,
      "Ġletters": 4706,
      "Ġnotable": 4707,
      "ĠBlue": 4708,
      "ĠCommon": 4709,
      "mir": 4710,
      "Ġstars": 4711,
      "osing": 4712,
      "Ġjob": 4713,
      "Ġattacks": 4714,
      "Ġversions": 4715,
      "isher": 4716,
      "Ġapproach": 4717,
      "Ġmur": 4718,
      "acher": 4719,
      "Ġscore": 4720,
      "olitan": 4721,
      "EC": 4722,
      "ĠMat": 4723,
      "ĠEp": 4724,
      "ĠÂ£": 4725,
      "Ġmodels": 4726,
      "ario": 4727,
      "Ġaspect": 4728,
      "ĠDi": 4729,
      "Ġquarter": 4730,
      "FC": 4731,
      "water": 4732,
      "alo": 4733,
      "Ġrepe": 4734,
      "ady": 4735,
      "ĠArm": 4736,
      "Ġdra": 4737,
      "teen": 4738,
      "ĠAnother": 4739,
      "Ġpositive": 4740,
      "ĠAwards": 4741,
      "Ġcomposer": 4742,
      "ĠHel": 4743,
      "Ġstudio": 4744,
      "Ġoverall": 4745,
      "Ġvalues": 4746,
      "45": 4747,
      "Ab": 4748,
      "orders": 4749,
      "pha": 4750,
      "Ġparties": 4751,
      "Ġhundred": 4752,
      "Ġsilver": 4753,
      "Ġjournalist": 4754,
      "Ġcondition": 4755,
      "ĠValley": 4756,
      "aceae": 4757,
      "Ġadministration": 4758,
      "Ġtold": 4759,
      "Ġhere": 4760,
      "ression": 4761,
      "Ġordered": 4762,
      "rin": 4763,
      "ĠEs": 4764,
      "gebra": 4765,
      "Ġ1965": 4766,
      "Ġface": 4767,
      "Ġbra": 4768,
      "ackson": 4769,
      "disambiguation": 4770,
      "2005": 4771,
      "ĠAssembly": 4772,
      "Ġagreement": 4773,
      "down": 4774,
      "Ġaim": 4775,
      "Ġadult": 4776,
      "Ġdark": 4777,
      "ĠCyp": 4778,
      "estic": 4779,
      "incoln": 4780,
      "Ġreplace": 4781,
      "Ġfighting": 4782,
      "Ġdirection": 4783,
      "Col": 4784,
      "vin": 4785,
      "ishes": 4786,
      "ĠRo": 4787,
      "ellow": 4788,
      "Ġsubs": 4789,
      "Ġ1964": 4790,
      "Ġmarriage": 4791,
      "Ġlaunch": 4792,
      "Ġexpansion": 4793,
      "Ġleaders": 4794,
      "Ġslow": 4795,
      "Ġremoved": 4796,
      "With": 4797,
      "Åį": 4798,
      "Ġnewspaper": 4799,
      "aging": 4800,
      "orado": 4801,
      "ĠMajor": 4802,
      "ĠHot": 4803,
      "ĠJac": 4804,
      "Ġvocals": 4805,
      "ĠAst": 4806,
      "Ġeffective": 4807,
      "Ġobjects": 4808,
      "Ġfavor": 4809,
      "OR": 4810,
      "ĠTem": 4811,
      "Ġreach": 4812,
      "ĠBir": 4813,
      "ĠFamily": 4814,
      "Ġglobal": 4815,
      "Ġfaith": 4816,
      "see": 4817,
      "Ġplanned": 4818,
      "Ġlisted": 4819,
      "Ġconstant": 4820,
      "ĠPeople": 4821,
      "awa": 4822,
      "Ġx": 4823,
      "ĠPak": 4824,
      "ĠChap": 4825,
      "Ġweight": 4826,
      "Ġcry": 4827,
      "uese": 4828,
      "Pop": 4829,
      "Some": 4830,
      "Ġtourn": 4831,
      "ĠAri": 4832,
      "ĠBet": 4833,
      "ĠMP": 4834,
      "Ġfrequently": 4835,
      "Ġbridge": 4836,
      "Brit": 4837,
      "Ġbranch": 4838,
      "Ġbeat": 4839,
      "67": 4840,
      "Ġfully": 4841,
      "range": 4842,
      "Ġraised": 4843,
      "Ġallows": 4844,
      "Ġdistribution": 4845,
      "hol": 4846,
      "ĠMr": 4847,
      "ĠJean": 4848,
      "Ġearliest": 4849,
      "iced": 4850,
      "Ġallowing": 4851,
      "Ġbasic": 4852,
      "ĠAtlantic": 4853,
      "thod": 4854,
      "Ġran": 4855,
      "rence": 4856,
      "ĠPrime": 4857,
      "ylvania": 4858,
      "thur": 4859,
      "Ġattrib": 4860,
      "Ġ35": 4861,
      "ĠGeorgia": 4862,
      "Ġec": 4863,
      "ĠLater": 4864,
      "187": 4865,
      "Ġelectric": 4866,
      "Ġfoot": 4867,
      "Ġplat": 4868,
      "ĪĴ": 4869,
      "Ġtheore": 4870,
      "ighter": 4871,
      "mann": 4872,
      "orph": 4873,
      "ĠUl": 4874,
      "Ġethnic": 4875,
      "bai": 4876,
      "Ġstories": 4877,
      "ampion": 4878,
      "Ġpositions": 4879,
      "uild": 4880,
      "Ġuns": 4881,
      "99": 4882,
      "Ġfollows": 4883,
      "Ġauthority": 4884,
      "Ġtun": 4885,
      "Ġactually": 4886,
      "Ġapplied": 4887,
      "Ġoccurred": 4888,
      "Ġsexual": 4889,
      "Can": 4890,
      "ĠTest": 4891,
      "ĠOh": 4892,
      "Ġreligion": 4893,
      "Ġmentioned": 4894,
      "One": 4895,
      "olis": 4896,
      "Ġserve": 4897,
      "Ġmis": 4898,
      "Ġalgor": 4899,
      "iplom": 4900,
      "Ġreject": 4901,
      "ĠHaw": 4902,
      "Ġavoid": 4903,
      "Ġhistorian": 4904,
      "ĠOxford": 4905,
      "ĠLong": 4906,
      "Ġconsum": 4907,
      "Ġarticle": 4908,
      "Ġformation": 4909,
      "ĠUnivers": 4910,
      "zerbai": 4911,
      "',": 4912,
      "From": 4913,
      "Ġfer": 4914,
      "ĠSpecial": 4915,
      "mas": 4916,
      "Ġsister": 4917,
      "Ġstra": 4918,
      "poration": 4919,
      "Ġinside": 4920,
      "Ġprotect": 4921,
      "Ġillust": 4922,
      "ĠFour": 4923,
      "Ġsculpt": 4924,
      "Ġquality": 4925,
      "1990": 4926,
      "Ġargued": 4927,
      "een": 4928,
      "rong": 4929,
      "inity": 4930,
      "Ġsites": 4931,
      "Ġwanted": 4932,
      "Ġpp": 4933,
      "Ġdepart": 4934,
      "Ġmarked": 4935,
      "formed": 4936,
      "ifying": 4937,
      "Ġwear": 4938,
      "Ġasked": 4939,
      "unction": 4940,
      "ĠMoon": 4941,
      "thing": 4942,
      "Ġofficially": 4943,
      "ĠCharl": 4944,
      "Ġvoice": 4945,
      "ensity": 4946,
      "Ġclaims": 4947,
      "iÄ": 4948,
      "Ġbal": 4949,
      "Ġoperated": 4950,
      "pass": 4951,
      "Ġattended": 4952,
      "ĠWomen": 4953,
      "Ġsimply": 4954,
      "ait": 4955,
      "ĠNations": 4956,
      "illery": 4957,
      "Ġflu": 4958,
      "enant": 4959,
      "ĠBalt": 4960,
      "Ġrise": 4961,
      "Ġserious": 4962,
      "oured": 4963,
      "olid": 4964,
      "Ġplans": 4965,
      "Ġshoot": 4966,
      "ĠViet": 4967,
      "ĠAM": 4968,
      "ĠAlban": 4969,
      "osh": 4970,
      "achus": 4971,
      "Ġreference": 4972,
      "Ġreaction": 4973,
      "abeth": 4974,
      "Ġdeclared": 4975,
      "Ġbrand": 4976,
      "Aust": 4977,
      "ening": 4978,
      "urb": 4979,
      "Ġunion": 4980,
      "Ġmunicipality": 4981,
      "itzer": 4982,
      "Ġfamilies": 4983,
      "ĠPremier": 4984,
      "Ġcollect": 4985,
      "ĠAirport": 4986,
      "ĠByzant": 4987,
      "ĠUN": 4988,
      "ĠOrgan": 4989,
      "ĠâĢľ": 4990,
      "ĠDie": 4991,
      "Ġoldest": 4992,
      "Ġdedicated": 4993,
      "ĠOver": 4994,
      "ST": 4995,
      "Ġrecording": 4996,
      "Ġagreed": 4997,
      "ĠFrancisco": 4998,
      "yst": 4999,
      "Ġminister": 5000,
      "ĠBus": 5001,
      "Ġcontemporary": 5002,
      "Ġphilosophy": 5003,
      "Ġfigures": 5004,
      "acc": 5005,
      "oking": 5006,
      "ĠBarb": 5007,
      "Ġinterpret": 5008,
      "\"),": 5009,
      "33": 5010,
      "ĠAre": 5011,
      "oting": 5012,
      "unar": 5013,
      "Ġcampus": 5014,
      "Ġfast": 5015,
      "ĠStep": 5016,
      "ez": 5017,
      "urt": 5018,
      "ĠFar": 5019,
      "ervation": 5020,
      "Ġgovernor": 5021,
      "ĠTime": 5022,
      "Ġalcoh": 5023,
      "Ġsecurity": 5024,
      "rum": 5025,
      "Ġprominent": 5026,
      "ĠAndrew": 5027,
      "wing": 5028,
      "Ġchurches": 5029,
      "Ġcompil": 5030,
      "ĠAlso": 5031,
      "Ġprovin": 5032,
      "Ġthink": 5033,
      "Ġ32": 5034,
      "Ġsets": 5035,
      "burgh": 5036,
      "ĠElect": 5037,
      "Ġ180": 5038,
      "ĠAbb": 5039,
      "Ġcle": 5040,
      "ĠPen": 5041,
      "ĠChief": 5042,
      "ĠWal": 5043,
      "ĠBoard": 5044,
      "Ġscene": 5045,
      "Ġspok": 5046,
      "ĠChile": 5047,
      "Ġnecessary": 5048,
      "thodox": 5049,
      "song": 5050,
      "Ġfolk": 5051,
      "Ġstudied": 5052,
      "Ġimmediately": 5053,
      "Ġacquired": 5054,
      "erc": 5055,
      "etts": 5056,
      "Ġslight": 5057,
      "Ġvan": 5058,
      "cluded": 5059,
      "Ġsimple": 5060,
      "ĠDemocratic": 5061,
      "cription": 5062,
      "Ġcontaining": 5063,
      "Ġmaxim": 5064,
      "Ġtend": 5065,
      "iano": 5066,
      "ĠOb": 5067,
      "Ġemb": 5068,
      "osa": 5069,
      "umber": 5070,
      "Ġexpected": 5071,
      "2007": 5072,
      "Ġorganizations": 5073,
      "64": 5074,
      "OM": 5075,
      "iary": 5076,
      "ĠDar": 5077,
      "ĠKent": 5078,
      "ĠTheatre": 5079,
      "Ġemphas": 5080,
      "ĠDespite": 5081,
      "All": 5082,
      "ads": 5083,
      "ieval": 5084,
      "ibb": 5085,
      "Ġrefers": 5086,
      "Ġfifth": 5087,
      "nia": 5088,
      "Ġgoing": 5089,
      "ĠCoast": 5090,
      "ĠVirginia": 5091,
      "NT": 5092,
      "Ġmill": 5093,
      "ĠLincoln": 5094,
      "Ġhouses": 5095,
      "Ġhy": 5096,
      "ira": 5097,
      "uts": 5098,
      "Ġgiving": 5099,
      "ĠLittle": 5100,
      "rine": 5101,
      "eding": 5102,
      "inals": 5103,
      "Ġvary": 5104,
      "Ġmovie": 5105,
      "Ġmeeting": 5106,
      "Ġconflict": 5107,
      "ĠSong": 5108,
      "ĠJackson": 5109,
      "Ġsport": 5110,
      "Ġgives": 5111,
      "ogen": 5112,
      "Ġcovered": 5113,
      "ĠTod": 5114,
      "ĠBall": 5115,
      "ĠDan": 5116,
      "Ġrot": 5117,
      "Ġformal": 5118,
      "ĠSab": 5119,
      "andon": 5120,
      "ĠJournal": 5121,
      "Ġleave": 5122,
      "Ġ1962": 5123,
      "ĠCroatia": 5124,
      "ĠJustice": 5125,
      "pired": 5126,
      "enty": 5127,
      "ĠEducation": 5128,
      "ervative": 5129,
      "Ġcorre": 5130,
      "Ġmixed": 5131,
      "48": 5132,
      "usion": 5133,
      "Ġearth": 5134,
      "Des": 5135,
      "ĠLew": 5136,
      "Ġexamples": 5137,
      "hips": 5138,
      "Ġhumans": 5139,
      "Ġpaint": 5140,
      "Ġarchitecture": 5141,
      "found": 5142,
      "rations": 5143,
      "heim": 5144,
      "Ġinternal": 5145,
      "state": 5146,
      "ĠJersey": 5147,
      "55": 5148,
      "Ġrecently": 5149,
      "wise": 5150,
      "Ġalign": 5151,
      "Ġefforts": 5152,
      "Ġsplit": 5153,
      "ora": 5154,
      "Ġwild": 5155,
      "Ġcat": 5156,
      "ĠTre": 5157,
      "herlands": 5158,
      "antry": 5159,
      "Ġcontent": 5160,
      "Ġequal": 5161,
      "ĠNFL": 5162,
      "Ġdepend": 5163,
      "lines": 5164,
      "Ġthings": 5165,
      "Ġgrew": 5166,
      "Ġneighbor": 5167,
      "Ġmurder": 5168,
      "ĠHuman": 5169,
      "Ġsettlement": 5170,
      "Ġvirt": 5171,
      "Ġrang": 5172,
      "Ġcaptured": 5173,
      "100": 5174,
      "Ġalt": 5175,
      "ĠStan": 5176,
      "Ġadapt": 5177,
      "sylvania": 5178,
      "Ġ1948": 5179,
      "ĠBeng": 5180,
      "aph": 5181,
      "Ġ1944": 5182,
      "ivalent": 5183,
      "Ġissued": 5184,
      "uther": 5185,
      "ĠDevelopment": 5186,
      "ieties": 5187,
      "Ġ1963": 5188,
      "Ġeditor": 5189,
      "38": 5190,
      "Ġetc": 5191,
      "era": 5192,
      "omers": 5193,
      "Ġadvert": 5194,
      "2004": 5195,
      "Ġstay": 5196,
      "ĠNic": 5197,
      "Ġpurpose": 5198,
      "Ġpal": 5199,
      "Ġsyn": 5200,
      "Ġconstructed": 5201,
      "from": 5202,
      "ĠCross": 5203,
      "Ġchannel": 5204,
      "Ġenter": 5205,
      "greg": 5206,
      "ati": 5207,
      "Ġpack": 5208,
      "ĠAzerbai": 5209,
      "Ġ(),": 5210,
      "Ġroom": 5211,
      "ogy": 5212,
      "ropolitan": 5213,
      "Ġtechniques": 5214,
      "Ġcerem": 5215,
      "ĠMatt": 5216,
      "iana": 5217,
      "portun": 5218,
      "Ġactors": 5219,
      "ructure": 5220,
      "Ġideas": 5221,
      "Ġburn": 5222,
      "Ġhab": 5223,
      "ĠFollowing": 5224,
      "Ġvote": 5225,
      "claim": 5226,
      "Ġflow": 5227,
      "ĠAdd": 5228,
      "ĠPhilipp": 5229,
      "ĠEconom": 5230,
      "arden": 5231,
      "Ġjoint": 5232,
      "Ġarrived": 5233,
      "Ġsaying": 5234,
      "ĠGre": 5235,
      "ifically": 5236,
      "reek": 5237,
      "ancy": 5238,
      "ĠBible": 5239,
      "Ġgained": 5240,
      "ĠProgram": 5241,
      "ĠWay": 5242,
      "adelph": 5243,
      "Ġcapacity": 5244,
      "Ġsymbol": 5245,
      "AF": 5246,
      "ĠRod": 5247,
      "lades": 5248,
      "ero": 5249,
      "ĠRog": 5250,
      "ĠOf": 5251,
      "ĠChampionships": 5252,
      "icit": 5253,
      "Ġobserved": 5254,
      "gu": 5255,
      "zz": 5256,
      "atures": 5257,
      "Ġpowers": 5258,
      "ĠTw": 5259,
      "Ġsurrounding": 5260,
      "ione": 5261,
      "ĠTop": 5262,
      "ĠLy": 5263,
      "Ġtowns": 5264,
      "ĠJones": 5265,
      "2003": 5266,
      "Ġeffic": 5267,
      "Ġrecognized": 5268,
      "ĠGame": 5269,
      "ĠHoly": 5270,
      "works": 5271,
      "ager": 5272,
      "Ġdistingu": 5273,
      "Ġexchange": 5274,
      "Ġperman": 5275,
      "eek": 5276,
      "Ġsubst": 5277,
      "ĠSupreme": 5278,
      "pri": 5279,
      "itage": 5280,
      "achusetts": 5281,
      "rm": 5282,
      "Ġharm": 5283,
      "ĠAsian": 5284,
      "Ġ70": 5285,
      "Ġengineering": 5286,
      "nce": 5287,
      "ĠGh": 5288,
      "Ġselected": 5289,
      "ĠPortuguese": 5290,
      "Ġpit": 5291,
      "Ġparents": 5292,
      "ygen": 5293,
      "Ġcars": 5294,
      "Ġdoub": 5295,
      "life": 5296,
      "ĠRom": 5297,
      "ĠAbd": 5298,
      "Ġban": 5299,
      "ĠCD": 5300,
      "ĠUk": 5301,
      "Ġnotes": 5302,
      "ibli": 5303,
      "ĠAud": 5304,
      "ĠDer": 5305,
      "ĠGall": 5306,
      "Ġconsequ": 5307,
      "ova": 5308,
      "Ġgrowing": 5309,
      "Ġsemi": 5310,
      "Ġsusp": 5311,
      "iments": 5312,
      "Ġrain": 5313,
      "Ġopposed": 5314,
      "ĠOffice": 5315,
      "lem": 5316,
      "ĠMen": 5317,
      "adian": 5318,
      "poses": 5319,
      "Ġnuclear": 5320,
      "antage": 5321,
      "Ġattra": 5322,
      "everal": 5323,
      "Ġmoving": 5324,
      "Ġconnected": 5325,
      "Car": 5326,
      "Ġple": 5327,
      "Ġhun": 5328,
      "Ġmut": 5329,
      "Ġdestroyed": 5330,
      "adelphia": 5331,
      "Ġgreen": 5332,
      "Ġseem": 5333,
      "Ġroyal": 5334,
      "Ġattention": 5335,
      "ĠPolish": 5336,
      "Ġretired": 5337,
      "Ġnearby": 5338,
      "ĠForest": 5339,
      "ker": 5340,
      "Ġpoll": 5341,
      "imens": 5342,
      "ĠRel": 5343,
      "ĠNetherlands": 5344,
      "Ġvehicles": 5345,
      "ocated": 5346,
      "ĠPennsylvania": 5347,
      "eral": 5348,
      "Ġmm": 5349,
      "stone": 5350,
      "Ġlabor": 5351,
      "Ġ500": 5352,
      "Ġsuppl": 5353,
      "ĠAngl": 5354,
      "Ġhands": 5355,
      "igenous": 5356,
      "\"|": 5357,
      "Ġcombination": 5358,
      "Ġabandon": 5359,
      "Ġsecondary": 5360,
      "agh": 5361,
      "ĠSpace": 5362,
      "Ġkingdom": 5363,
      "ĠGovernor": 5364,
      "ĠGer": 5365,
      "ĠColorado": 5366,
      "Ġapplications": 5367,
      "Ġdefinition": 5368,
      "Ġresidents": 5369,
      "Ġmonarch": 5370,
      "Ġdescript": 5371,
      "Ġalongside": 5372,
      "Ġpurs": 5373,
      "erved": 5374,
      "Ġcritical": 5375,
      "Ġassociation": 5376,
      "Ġunique": 5377,
      "Ġbackground": 5378,
      "Ġnormal": 5379,
      "1999": 5380,
      "32": 5381,
      "CC": 5382,
      "ĠThus": 5383,
      "Ġsecret": 5384,
      "ĠDev": 5385,
      "Ã¡n": 5386,
      "ĠRepublican": 5387,
      "ĠSecretary": 5388,
      "Ġinhabit": 5389,
      "\").": 5390,
      "ulate": 5391,
      "Ġring": 5392,
      "aped": 5393,
      "ĠEngine": 5394,
      "Ġ1958": 5395,
      "Ġkept": 5396,
      "Ġoccurs": 5397,
      "Ġsuit": 5398,
      "ĠCat": 5399,
      "ĠMain": 5400,
      "ĠIran": 5401,
      "osm": 5402,
      "yes": 5403,
      "ĠCost": 5404,
      "Ġserving": 5405,
      "pet": 5406,
      "Ġfish": 5407,
      "irls": 5408,
      "Ġlear": 5409,
      "Ġexpanded": 5410,
      "Ġconducted": 5411,
      "ĠTri": 5412,
      "Ġimpl": 5413,
      "Ġimage": 5414,
      "aniel": 5415,
      "hew": 5416,
      "ĠSultan": 5417,
      "AD": 5418,
      "Since": 5419,
      "Ġbirds": 5420,
      "Ġopposition": 5421,
      "Ġsignal": 5422,
      "ĠDuke": 5423,
      "Ġbul": 5424,
      "iah": 5425,
      "ii": 5426,
      "ĠWilson": 5427,
      "ĠAthens": 5428,
      "31": 5429,
      "orter": 5430,
      "Ġofficers": 5431,
      "ĠAge": 5432,
      "Ġancest": 5433,
      "Ġunknown": 5434,
      "Ġprep": 5435,
      "Ġworkers": 5436,
      "Ġmoment": 5437,
      "95": 5438,
      "German": 5439,
      "Ġalk": 5440,
      "ĠEliz": 5441,
      "Ġcompletely": 5442,
      "miss": 5443,
      "Ġpra": 5444,
      "ĠSym": 5445,
      "Ġwinter": 5446,
      "Ġanimal": 5447,
      "British": 5448,
      "Ġways": 5449,
      "Ġpair": 5450,
      "ĠBon": 5451,
      "Ġdescent": 5452,
      "Ġreceive": 5453,
      "Ġvehicle": 5454,
      "Ġresistance": 5455,
      "illy": 5456,
      "agen": 5457,
      "ocks": 5458,
      "tex": 5459,
      "Ġopportun": 5460,
      "Ġplatform": 5461,
      "ĠAff": 5462,
      "igration": 5463,
      "ĠEnd": 5464,
      "present": 5465,
      "enger": 5466,
      "Ġphen": 5467,
      "asy": 5468,
      "uter": 5469,
      "Ġresources": 5470,
      "SM": 5471,
      "pre": 5472,
      "Ã±": 5473,
      "Ġrein": 5474,
      "Ġmeant": 5475,
      "Ġattempts": 5476,
      "Ġauth": 5477,
      "Ġdynasty": 5478,
      "Ġdance": 5479,
      "Ġbey": 5480,
      "ĠArgent": 5481,
      "Ġpolitics": 5482,
      "Ġparliament": 5483,
      "cious": 5484,
      "Ġconvers": 5485,
      "2002": 5486,
      "Ġ1947": 5487,
      "ĠTeam": 5488,
      "Ġreact": 5489,
      "Ġshowed": 5490,
      "Ġantib": 5491,
      "hetic": 5492,
      "book": 5493,
      "Ġdiplom": 5494,
      "ĠPop": 5495,
      "ĠGal": 5496,
      "ĠSerb": 5497,
      "Ġgain": 5498,
      "Ġconstitu": 5499,
      "ĠRay": 5500,
      "Ġformat": 5501,
      "Ġsupply": 5502,
      "Ġcounty": 5503,
      "no": 5504,
      "orage": 5505,
      "ĠKenn": 5506,
      "comm": 5507,
      "Ġexistence": 5508,
      "Ġcollabor": 5509,
      "ĠCommunity": 5510,
      "ĠCE": 5511,
      "ador": 5512,
      "ĠDec": 5513,
      "igan": 5514,
      "Ġexact": 5515,
      "Ġexclus": 5516,
      "Ġsched": 5517,
      "Ġlawyer": 5518,
      "Ġapparent": 5519,
      "Mar": 5520,
      "itness": 5521,
      "ĠField": 5522,
      "Ġcomedy": 5523,
      "Ġsector": 5524,
      "ogue": 5525,
      "Ġnegative": 5526,
      "anes": 5527,
      "Ġsays": 5528,
      "racy": 5529,
      "2001": 5530,
      "ĠPope": 5531,
      "Ġpeak": 5532,
      "vard": 5533,
      "ĠFederal": 5534,
      "Ġforward": 5535,
      "Ġalgebra": 5536,
      "Ġyouth": 5537,
      "Ġdecades": 5538,
      "ĠCentre": 5539,
      "IA": 5540,
      "usal": 5541,
      "Ġcontinues": 5542,
      "Ġexpressed": 5543,
      "Ġtrees": 5544,
      "Man": 5545,
      "Ġcab": 5546,
      "Ġcart": 5547,
      "Ġrecomm": 5548,
      "Ġexecutive": 5549,
      "Ġachieved": 5550,
      "Be": 5551,
      "ĠSel": 5552,
      "ĠSand": 5553,
      "Ġmanaged": 5554,
      "Ġbrain": 5555,
      "Ġmaster": 5556,
      "ulty": 5557,
      "outheast": 5558,
      "mat": 5559,
      "ĠBand": 5560,
      "pton": 5561,
      "ressed": 5562,
      "Ġmotor": 5563,
      "ĠMassachusetts": 5564,
      "ĠIslamic": 5565,
      "Ġchair": 5566,
      "Ġspeech": 5567,
      "Films": 5568,
      "icks": 5569,
      "ĠSports": 5570,
      "ĠTreat": 5571,
      "ĠBa": 5572,
      "Ġnob": 5573,
      "Ġ1942": 5574,
      "Ġpowerful": 5575,
      "ĠWilliams": 5576,
      "Ġsubsequent": 5577,
      "Ġranked": 5578,
      "iÄĩ": 5579,
      "zen": 5580,
      "Ġbit": 5581,
      "Ġpersonnel": 5582,
      "ĠAnton": 5583,
      "Ġhonor": 5584,
      "Ġpet": 5585,
      "ĠJeff": 5586,
      "rics": 5587,
      "34": 5588,
      "Ġreign": 5589,
      "usband": 5590,
      "ĠGar": 5591,
      "ĠNight": 5592,
      "Ġhero": 5593,
      "Ġsuffered": 5594,
      "Mark": 5595,
      "pool": 5596,
      "ĠGood": 5597,
      "rance": 5598,
      "Ġleadership": 5599,
      "Ġfacilities": 5600,
      "ĠMot": 5601,
      "ums": 5602,
      "ĠWater": 5603,
      "Ġcoaches": 5604,
      "Ġstrugg": 5605,
      "Although": 5606,
      "--": 5607,
      "54": 5608,
      "org": 5609,
      "ĠJr": 5610,
      "ĠBelg": 5611,
      "Ġbronze": 5612,
      "uting": 5613,
      "odia": 5614,
      "Ġelev": 5615,
      "Ġextensive": 5616,
      "Ġidentity": 5617,
      "Ġmyth": 5618,
      "Ġsquare": 5619,
      "39": 5620,
      "88": 5621,
      "gers": 5622,
      "Ġstone": 5623,
      "ragon": 5624,
      "Ġgot": 5625,
      "ĠCountry": 5626,
      "Ã¶y": 5627,
      "Ġprotection": 5628,
      "ĠVictoria": 5629,
      "ĠÐ": 5630,
      "entially": 5631,
      "Ġshared": 5632,
      "ĠHon": 5633,
      "ĠHor": 5634,
      "ĠWeb": 5635,
      "ĠNAS": 5636,
      "ĠOrthodox": 5637,
      "Char": 5638,
      "Ġbacter": 5639,
      "Ġdigital": 5640,
      "Ġbeyond": 5641,
      "Rec": 5642,
      "Ġ1961": 5643,
      "onym": 5644,
      "Ġportion": 5645,
      "ĠSenate": 5646,
      "inth": 5647,
      "inson": 5648,
      "Ġsituation": 5649,
      "igrants": 5650,
      "Ġcompounds": 5651,
      "Ġdefense": 5652,
      "ĠÃĹ": 5653,
      "inger": 5654,
      "left": 5655,
      "ĠId": 5656,
      "Ġguns": 5657,
      "ĠLabor": 5658,
      "2010": 5659,
      "Ġevolution": 5660,
      "Ġ1959": 5661,
      "Ġ90": 5662,
      "Ġinstruments": 5663,
      "ko": 5664,
      "Ġprojects": 5665,
      "ĠMexican": 5666,
      "amber": 5667,
      "Ġregarded": 5668,
      "Not": 5669,
      "Ġactions": 5670,
      "ĠTour": 5671,
      "Ġfeel": 5672,
      "kes": 5673,
      "ĠUs": 5674,
      "Ġarts": 5675,
      "36": 5676,
      "Or": 5677,
      "car": 5678,
      "alism": 5679,
      "ĠBi": 5680,
      "eather": 5681,
      "Ġlabel": 5682,
      "ĠCarolina": 5683,
      "inus": 5684,
      "ĠSu": 5685,
      "ĠThree": 5686,
      "Ġoppos": 5687,
      "ĠAfghanistan": 5688,
      "rates": 5689,
      "Ġones": 5690,
      "Ġfactors": 5691,
      "Ġdetermined": 5692,
      "lers": 5693,
      "ĠLuc": 5694,
      "sey": 5695,
      "Ġcombat": 5696,
      "ĠLewis": 5697,
      "Ġgranted": 5698,
      "ĠBaseball": 5699,
      "also": 5700,
      "ruce": 5701,
      "ĠPhiladelphia": 5702,
      "Person": 5703,
      "ĠBridge": 5704,
      "quarters": 5705,
      "ancing": 5706,
      "Ġsettled": 5707,
      "orning": 5708,
      "ducing": 5709,
      "Ġmatches": 5710,
      "Ġpan": 5711,
      "aven": 5712,
      "Ġrough": 5713,
      "ĠEmperor": 5714,
      "Ġlives": 5715,
      "ashion": 5716,
      "ĠInst": 5717,
      "Ġattempted": 5718,
      "Trans": 5719,
      "anth": 5720,
      "Ġfiction": 5721,
      "adron": 5722,
      "unct": 5723,
      "rat": 5724,
      "Ġfair": 5725,
      "lywood": 5726,
      "Ġnewly": 5727,
      "point": 5728,
      "isf": 5729,
      "Ġneut": 5730,
      "And": 5731,
      "Ġroll": 5732,
      "Ġimportance": 5733,
      "Ġtitles": 5734,
      "ĠJesus": 5735,
      "Members": 5736,
      "where": 5737,
      "ĠPost": 5738,
      "ibn": 5739,
      "ĠArk": 5740,
      "aming": 5741,
      "ĠPower": 5742,
      "phy": 5743,
      "ĠConstitution": 5744,
      "elligence": 5745,
      "Ġsay": 5746,
      "ĠBatt": 5747,
      "Ġattend": 5748,
      "Ġsignificantly": 5749,
      "ĠAlfred": 5750,
      "ĠElizabeth": 5751,
      "haps": 5752,
      "Å¡": 5753,
      "iser": 5754,
      "ĠCay": 5755,
      "Ġbeaut": 5756,
      "ighth": 5757,
      "Ġinspired": 5758,
      "Ġgreatest": 5759,
      "Ġbelieve": 5760,
      "ja": 5761,
      "ivals": 5762,
      "Ġlearning": 5763,
      "Ġpict": 5764,
      "ctoral": 5765,
      "Ġsomething": 5766,
      "Ġrenamed": 5767,
      "Ġenj": 5768,
      "Ġfields": 5769,
      "Ġtried": 5770,
      "amine": 5771,
      "Ġproviding": 5772,
      "Ġ1957": 5773,
      "Ġrefused": 5774,
      "Ġcalc": 5775,
      "Ġiron": 5776,
      "Ġcommunication": 5777,
      "37": 5778,
      "Le": 5779,
      "ictional": 5780,
      "elsh": 5781,
      "1980": 5782,
      "Ġpromoted": 5783,
      "Ġadvance": 5784,
      "irmed": 5785,
      "Ġcoming": 5786,
      "Ġwealth": 5787,
      "ĠEnter": 5788,
      "Ġwalk": 5789,
      "Ġpron": 5790,
      "rack": 5791,
      "Ġ1943": 5792,
      "Ġengineer": 5793,
      "ĠMov": 5794,
      "Ġcauses": 5795,
      "ĠNap": 5796,
      "Ġcoal": 5797,
      "ĠFoundation": 5798,
      "wa": 5799,
      "ĠJoh": 5800,
      "Ġsenior": 5801,
      "Ġtoward": 5802,
      "omew": 5803,
      "Ġseats": 5804,
      "ears": 5805,
      "Ġoppon": 5806,
      "Ġreflect": 5807,
      "enna": 5808,
      "unior": 5809,
      "Ġdistricts": 5810,
      "Ġepisodes": 5811,
      "cell": 5812,
      "Ġsales": 5813,
      "ĠMir": 5814,
      "ĠStat": 5815,
      "Ġprefer": 5816,
      "AP": 5817,
      "ĠJon": 5818,
      "ĠJan": 5819,
      "ĠArthur": 5820,
      "alion": 5821,
      "Ġextrem": 5822,
      "ĠSteve": 5823,
      "kh": 5824,
      "including": 5825,
      "Ġly": 5826,
      "Ġsequence": 5827,
      "ĠOhio": 5828,
      "ĠStephen": 5829,
      "minist": 5830,
      "ĠBron": 5831,
      "aints": 5832,
      "Ġsingles": 5833,
      "Ġadvanced": 5834,
      "onian": 5835,
      "Ġmind": 5836,
      "wick": 5837,
      "Ġclosely": 5838,
      "Ġdamage": 5839,
      "inema": 5840,
      "ĠSem": 5841,
      "ĠLine": 5842,
      "ĠConference": 5843,
      "ĠIndepend": 5844,
      "Ġlands": 5845,
      "tical": 5846,
      "icts": 5847,
      "ĠEst": 5848,
      "ĠCorporation": 5849,
      "related": 5850,
      "Ġbishop": 5851,
      "ĠProfess": 5852,
      "Ġfeaturing": 5853,
      "ĠAT": 5854,
      "61": 5855,
      "gg": 5856,
      "ooth": 5857,
      "alty": 5858,
      "Ġvess": 5859,
      "ĠForces": 5860,
      "ĠSwedish": 5861,
      "such": 5862,
      "Ġcorn": 5863,
      "Ġfelt": 5864,
      "Ġbow": 5865,
      "ĠAber": 5866,
      "ĠMike": 5867,
      "umes": 5868,
      "ĠChild": 5869,
      "ĠShah": 5870,
      "agement": 5871,
      "ĠVen": 5872,
      "Ġmusicians": 5873,
      "Ġbegins": 5874,
      "ĠDoug": 5875,
      "ibliography": 5876,
      "agle": 5877,
      "Ġ1956": 5878,
      "Ã¸": 5879,
      "Ġmel": 5880,
      "ĠCP": 5881,
      "ĠIV": 5882,
      "Ġwrite": 5883,
      "Ġoccasion": 5884,
      "ois": 5885,
      "uda": 5886,
      "ĠPhilip": 5887,
      "Ġspoken": 5888,
      "gar": 5889,
      "grad": 5890,
      "Ġcas": 5891,
      "ĠABC": 5892,
      "Ġprofessor": 5893,
      "Ġfleet": 5894,
      "Ġrevealed": 5895,
      "gment": 5896,
      "uer": 5897,
      "Ġproced": 5898,
      "unications": 5899,
      "Ġprincipal": 5900,
      "ĠModern": 5901,
      "ĠSanta": 5902,
      "Ġbottom": 5903,
      "ila": 5904,
      "ĠBoy": 5905,
      "iants": 5906,
      "Ġarms": 5907,
      "duct": 5908,
      "Ġ1955": 5909,
      "ĠCorps": 5910,
      "Ġtournament": 5911,
      "gn": 5912,
      "Ġsought": 5913,
      "Ġlosing": 5914,
      "ĠHa": 5915,
      "ĠKir": 5916,
      "ĠAustria": 5917,
      "Ġinhabitants": 5918,
      "68": 5919,
      "IV": 5920,
      "Ġorbit": 5921,
      "Ġregist": 5922,
      "risis": 5923,
      "ĠBCE": 5924,
      "Ġintroduction": 5925,
      "49": 5926,
      "Ġ1946": 5927,
      "Ġdifference": 5928,
      "John": 5929,
      "ĠSyd": 5930,
      "eler": 5931,
      "ĠProject": 5932,
      "1998": 5933,
      "Ä±n": 5934,
      "Ġexisting": 5935,
      "bi": 5936,
      "ĠHome": 5937,
      "We": 5938,
      "ĠMD": 5939,
      "Ġapplication": 5940,
      "dam": 5941,
      "vest": 5942,
      "Ġhusband": 5943,
      "Ġven": 5944,
      "ĠKorea": 5945,
      "BM": 5946,
      "mosp": 5947,
      "Ã£": 5948,
      "Ġsolution": 5949,
      "Ġcricket": 5950,
      "uration": 5951,
      "Ġrob": 5952,
      "Ġearned": 5953,
      "Ġaffili": 5954,
      "Ġswim": 5955,
      "Ġtwice": 5956,
      "Ġoxygen": 5957,
      "Dist": 5958,
      "raq": 5959,
      "ieut": 5960,
      "Ġteaching": 5961,
      "ĠAnth": 5962,
      "Ġ1949": 5963,
      "World": 5964,
      "rator": 5965,
      "ĠEach": 5966,
      "Ġmunicipalities": 5967,
      "Ġenemy": 5968,
      "iate": 5969,
      "Ġnor": 5970,
      "ima": 5971,
      "ĠFree": 5972,
      "ĠNob": 5973,
      "Ġclasses": 5974,
      "ĠTal": 5975,
      "ava": 5976,
      "ĠAlb": 5977,
      "1997": 5978,
      "Ġcrime": 5979,
      "ĠChristianity": 5980,
      "Ġheavily": 5981,
      "Ġhospital": 5982,
      "Ġprof": 5983,
      "ĠStand": 5984,
      "ĠPolit": 5985,
      "ĠPakistan": 5986,
      "ĠMinistry": 5987,
      "Ġchap": 5988,
      "Ġvolume": 5989,
      "Ġsail": 5990,
      "Ġsides": 5991,
      "ĠSa": 5992,
      "ĠConstant": 5993,
      "Ġinstance": 5994,
      "Ġadministrative": 5995,
      "law": 5996,
      "wich": 5997,
      "ĠBecause": 5998,
      "Ġ1939": 5999,
      "Ac": 6000,
      "oes": 6001,
      "ĠAtt": 6002,
      "Ġtranslation": 6003,
      "Ġeasily": 6004,
      "ographer": 6005,
      "Ġproved": 6006,
      "Ġdevices": 6007,
      "Ġmotion": 6008,
      "Ġsucceeded": 6009,
      "equ": 6010,
      "ologists": 6011,
      "Ġnovels": 6012,
      "ĠOpen": 6013,
      "ga": 6014,
      "mers": 6015,
      "ĠCamer": 6016,
      "Ġcoordin": 6017,
      "Ġdevice": 6018,
      "Ġoccupied": 6019,
      "Ġslightly": 6020,
      "uing": 6021,
      "ĠCr": 6022,
      "ĠFox": 6023,
      "venth": 6024,
      "hammad": 6025,
      "Ġweapons": 6026,
      "Ġbad": 6027,
      "abama": 6028,
      "ĠShow": 6029,
      "bec": 6030,
      "ĠSher": 6031,
      "ĠSunday": 6032,
      "ĠCape": 6033,
      "Ġobtained": 6034,
      "Ġcensus": 6035,
      "ĠFe": 6036,
      "resh": 6037,
      "SR": 6038,
      "Ġpick": 6039,
      "Ġsetting": 6040,
      "Ġcreating": 6041,
      "ĠBulgaria": 6042,
      "59": 6043,
      "78": 6044,
      "itting": 6045,
      "Ġfans": 6046,
      "ĠWild": 6047,
      "Ġpropos": 6048,
      "ĠHeb": 6049,
      "chen": 6050,
      "Ġfailure": 6051,
      "Ġphase": 6052,
      "Ġemployed": 6053,
      "Ġpage": 6054,
      "2008": 6055,
      "Ġcausing": 6056,
      "Ġauthors": 6057,
      "66": 6058,
      "National": 6059,
      "edia": 6060,
      "ĠSat": 6061,
      "Ġdog": 6062,
      "ĠLar": 6063,
      "ĠAmaz": 6064,
      "Ġformerly": 6065,
      "Ġsafety": 6066,
      "ĠFront": 6067,
      "Ġcho": 6068,
      "Ġcarry": 6069,
      "ĠBuddha": 6070,
      "Ġfirm": 6071,
      "Ġscale": 6072,
      "Ġcolumn": 6073,
      "Ġtracks": 6074,
      "Christ": 6075,
      "Ġtexts": 6076,
      "Ġprime": 6077,
      "ographical": 6078,
      "Ġspecifically": 6079,
      "Ġportray": 6080,
      "Ġnucle": 6081,
      "Ġtal": 6082,
      "Ġlimit": 6083,
      "Ġassistant": 6084,
      "ĠNetwork": 6085,
      "Ġconverted": 6086,
      "Ġstrength": 6087,
      "Ġfixed": 6088,
      "language": 6089,
      "ĠTam": 6090,
      "ĠBan": 6091,
      "abet": 6092,
      "ĠKen": 6093,
      "Ġterritories": 6094,
      "Ġalcohol": 6095,
      "Polit": 6096,
      "Ġreduce": 6097,
      "estab": 6098,
      "Ġviews": 6099,
      "Ġliterary": 6100,
      "ĠConfeder": 6101,
      "ĠBanglades": 6102,
      "ĠAnglican": 6103,
      "ĠAz": 6104,
      "ĠBak": 6105,
      "Ne": 6106,
      "da": 6107,
      "sk": 6108,
      "ĠCam": 6109,
      "Ġlies": 6110,
      "ĠMiller": 6111,
      "ĠInf": 6112,
      "Ġchosen": 6113,
      "Ġstandards": 6114,
      "Ġcritics": 6115,
      "Ġtrial": 6116,
      "Ġfuel": 6117,
      "iling": 6118,
      "ĠDick": 6119,
      "osaur": 6120,
      "eget": 6121,
      "Ġflag": 6122,
      "Ġ1952": 6123,
      "Ġparalle": 6124,
      "Northern": 6125,
      "ĠVan": 6126,
      "Ġequivalent": 6127,
      "fort": 6128,
      "iny": 6129,
      "Ġbodies": 6130,
      "ĠCO": 6131,
      "ĠRam": 6132,
      "Ġcommander": 6133,
      "While": 6134,
      "General": 6135,
      "vis": 6136,
      "ĠMic": 6137,
      "Ġacting": 6138,
      "Ġassigned": 6139,
      "Ġarchae": 6140,
      "Ġkilling": 6141,
      "Ġsteel": 6142,
      "ĠBowl": 6143,
      "fall": 6144,
      "Ġtaught": 6145,
      "illing": 6146,
      "2009": 6147,
      "Ġdeploy": 6148,
      "Ġcontained": 6149,
      "areer": 6150,
      "center": 6151,
      "Ġworldwide": 6152,
      "Ġpossibly": 6153,
      "Ġexperi": 6154,
      "bourne": 6155,
      "ĠColl": 6156,
      "Ġreports": 6157,
      "ĠWork": 6158,
      "Ġnotably": 6159,
      "ĠBrig": 6160,
      "Ġhosted": 6161,
      "Ġhydrogen": 6162,
      "ĠSweden": 6163,
      "Ġhypot": 6164,
      "Ġce": 6165,
      "Ġabol": 6166,
      "Ġsubstant": 6167,
      "Af": 6168,
      "ĠAch": 6169,
      "Ġchallen": 6170,
      "ĠAustrian": 6171,
      "ĠPoland": 6172,
      "Ġcycl": 6173,
      "Ġaudience": 6174,
      "01": 6175,
      "Ġibn": 6176,
      "ĠDun": 6177,
      "ĠProtest": 6178,
      "Ġrival": 6179,
      "Ġchoice": 6180,
      "ĠOrchestra": 6181,
      "Ġdomestic": 6182,
      "SO": 6183,
      "isted": 6184,
      "ifications": 6185,
      "mes": 6186,
      "rac": 6187,
      "iat": 6188,
      "Ġhop": 6189,
      "ĠFurther": 6190,
      "Ġarc": 6191,
      "Ġspring": 6192,
      "Ġentirely": 6193,
      "oly": 6194,
      "aved": 6195,
      "ĠByzantine": 6196,
      "iot": 6197,
      "emic": 6198,
      "Ġleaves": 6199,
      "Ġmedicine": 6200,
      "Ġdrive": 6201,
      "Ġtemple": 6202,
      "Ġofficials": 6203,
      "Ġholds": 6204,
      "lan": 6205,
      "term": 6206,
      "ĠDam": 6207,
      "songwriter": 6208,
      "lu": 6209,
      "standing": 6210,
      "under": 6211,
      "Ġtypical": 6212,
      "ĠLiberal": 6213,
      "Ġaid": 6214,
      "ĠMilitary": 6215,
      "ials": 6216,
      "Ġvisited": 6217,
      "Ġruled": 6218,
      "Ġtransferred": 6219,
      "placement": 6220,
      "Ġdrama": 6221,
      "98": 6222,
      "IN": 6223,
      "RA": 6224,
      "Ġdaily": 6225,
      "char": 6226,
      "ĠPubl": 6227,
      "agan": 6228,
      "ucky": 6229,
      "%,": 6230,
      "'.": 6231,
      "Ġdang": 6232,
      "Ġnit": 6233,
      "inois": 6234,
      "Ġsolid": 6235,
      "%.": 6236,
      "una": 6237,
      "Ġrates": 6238,
      "ĠChristians": 6239,
      "Ġparticles": 6240,
      "Ġrestaur": 6241,
      "Ġconduct": 6242,
      "Ġpurchased": 6243,
      "rade": 6244,
      "Ġroles": 6245,
      "ĠMaria": 6246,
      "Ġorganized": 6247,
      "Ġuniverse": 6248,
      "ĠRailway": 6249,
      "ĠCastle": 6250,
      "ĠKong": 6251,
      "Ġ1941": 6252,
      "ĠGolden": 6253,
      "Ġcontrolled": 6254,
      "Ġsnow": 6255,
      "Ġbear": 6256,
      "ĠHun": 6257,
      "Ġpolic": 6258,
      "Ġdescribe": 6259,
      "ĠSydney": 6260,
      "pa": 6261,
      "Ġfr": 6262,
      "antic": 6263,
      "ĠStadium": 6264,
      "Ġ45": 6265,
      "Ġacts": 6266,
      "Ġdeveloping": 6267,
      "Ġpopularity": 6268,
      "ieutenant": 6269,
      "set": 6270,
      "ading": 6271,
      "ocracy": 6272,
      "Ġheat": 6273,
      "Ġpromotion": 6274,
      "Ġabsor": 6275,
      "Austral": 6276,
      "Ġpaid": 6277,
      "ĠOnt": 6278,
      "ĠKorean": 6279,
      "rec": 6280,
      "Ġsn": 6281,
      "urrent": 6282,
      "kee": 6283,
      "eoples": 6284,
      "Ġappearances": 6285,
      "lov": 6286,
      "Ġbatter": 6287,
      "ĠGreg": 6288,
      "Ġconsec": 6289,
      "Ġseems": 6290,
      "ante": 6291,
      "ĠAtlanta": 6292,
      "organ": 6293,
      "people": 6294,
      "ĠArist": 6295,
      "wegian": 6296,
      "ĠBooks": 6297,
      "worth": 6298,
      "ĠJoe": 6299,
      "Ġmanufactur": 6300,
      "dess": 6301,
      "ĠAj": 6302,
      "ĠTay": 6303,
      "Ġconvent": 6304,
      "ĠInternet": 6305,
      "Ġcopy": 6306,
      "Ġultimately": 6307,
      "Ġdivers": 6308,
      "Ġreasons": 6309,
      "unc": 6310,
      "agu": 6311,
      "phone": 6312,
      "Ġactual": 6313,
      "Ġunable": 6314,
      "Ġtranslated": 6315,
      "Ġproceed": 6316,
      "Ġvow": 6317,
      "ĠTechnology": 6318,
      "bar": 6319,
      "Ġjur": 6320,
      "Ġartillery": 6321,
      "Ġsuggests": 6322,
      "Ġtheories": 6323,
      "Ġonto": 6324,
      "ĠRout": 6325,
      "ibl": 6326,
      "Ġdesignated": 6327,
      "Ġlanding": 6328,
      "bal": 6329,
      "aron": 6330,
      "aded": 6331,
      "Ġalone": 6332,
      "ĠKhan": 6333,
      "Ġload": 6334,
      "uccess": 6335,
      "Ġrelative": 6336,
      "Ġdifferences": 6337,
      "Ġshell": 6338,
      "Ġadvantage": 6339,
      "Ġvisit": 6340,
      "ĠHo": 6341,
      "Ġencoura": 6342,
      "Ġpieces": 6343,
      "arus": 6344,
      "ĠBad": 6345,
      "Ä±k": 6346,
      "Ġauthorities": 6347,
      "Ġprocesses": 6348,
      "Olymp": 6349,
      "rÃ©": 6350,
      "olar": 6351,
      "Ġtraffic": 6352,
      "Ġinvasion": 6353,
      "Ġorders": 6354,
      "44": 6355,
      "Ġ;": 6356,
      "Ġwall": 6357,
      "level": 6358,
      "ĠFle": 6359,
      "ĠNI": 6360,
      "ugos": 6361,
      "ource": 6362,
      "Ġinstitution": 6363,
      "Ġnegot": 6364,
      "Ð°": 6365,
      "ĠAP": 6366,
      "odern": 6367,
      "ĠOcean": 6368,
      "ranean": 6369,
      "phony": 6370,
      "2012": 6371,
      "Ġcatal": 6372,
      "ĠLim": 6373,
      "active": 6374,
      "Ġending": 6375,
      "Ġhistoric": 6376,
      "III": 6377,
      "ĠBrazilian": 6378,
      "ĠLabour": 6379,
      "Ġhabit": 6380,
      "uct": 6381,
      "Ġchampion": 6382,
      "1995": 6383,
      "Ġyounger": 6384,
      "Ġwinners": 6385,
      "rix": 6386,
      "ache": 6387,
      "Ġ38": 6388,
      "Ġ1938": 6389,
      "Ġenjoy": 6390,
      "62": 6391,
      "ĠIndones": 6392,
      "ĠNazi": 6393,
      "His": 6394,
      "uscript": 6395,
      "ĠWelsh": 6396,
      "Ġaccur": 6397,
      "Ġglass": 6398,
      "Ġneighbour": 6399,
      "rod": 6400,
      "utation": 6401,
      "Ġstorage": 6402,
      "Ġoffers": 6403,
      "Ġquite": 6404,
      "Ġ1954": 6405,
      "ĠCy": 6406,
      "Ġanthrop": 6407,
      "former": 6408,
      "ĠMuhammad": 6409,
      "hat": 6410,
      "stream": 6411,
      "ĠHit": 6412,
      "ĠLes": 6413,
      "ĠWars": 6414,
      "Ġcontext": 6415,
      "phal": 6416,
      "while": 6417,
      "If": 6418,
      "icate": 6419,
      "ilton": 6420,
      "ĠMicro": 6421,
      "ĠFame": 6422,
      "ques": 6423,
      "ĠKel": 6424,
      "itionally": 6425,
      "Ġpoly": 6426,
      "ĠHungarian": 6427,
      "BT": 6428,
      "Ġ1953": 6429,
      "Ġdescribes": 6430,
      "Ġcomputers": 6431,
      "Ġburied": 6432,
      "ĠWell": 6433,
      "Ġfounder": 6434,
      "Ġcalls": 6435,
      "Ġawards": 6436,
      "itled": 6437,
      "ĠBapt": 6438,
      "ĠHay": 6439,
      "rapy": 6440,
      "Ġnarrow": 6441,
      "ĠFreder": 6442,
      "ĠGen": 6443,
      "Ġtheme": 6444,
      "Ġcaptain": 6445,
      "Ġcandidate": 6446,
      "Ġdiam": 6447,
      "Ġlunar": 6448,
      "Ġminim": 6449,
      "Ġtitled": 6450,
      "crib": 6451,
      "Ġboy": 6452,
      "ĠDNA": 6453,
      "obe": 6454,
      "Ġincome": 6455,
      "ĠOrig": 6456,
      "ĠQueens": 6457,
      "Ġagricultural": 6458,
      "Ant": 6459,
      "rees": 6460,
      "Ġconcluded": 6461,
      "Ġcircum": 6462,
      "58": 6463,
      "2011": 6464,
      "insula": 6465,
      "ĠAzerbaijan": 6466,
      "Ġwave": 6467,
      "ĠAlaska": 6468,
      "Ġprepar": 6469,
      "aux": 6470,
      "ĠStudies": 6471,
      "Ġchlor": 6472,
      "uous": 6473,
      "ellect": 6474,
      "ĠIraq": 6475,
      "1996": 6476,
      "Ġalleged": 6477,
      "||": 6478,
      "raf": 6479,
      "Ġ150": 6480,
      "ibbean": 6481,
      "gal": 6482,
      "Ġshape": 6483,
      "ĠAlabama": 6484,
      "Ġsupporting": 6485,
      "dd": 6486,
      "Ġrugby": 6487,
      "issance": 6488,
      "Ġregarding": 6489,
      "Ġmaximum": 6490,
      "ĠOntario": 6491,
      "vant": 6492,
      "ader": 6493,
      "ĠHart": 6494,
      "Ġbegin": 6495,
      "Ġproducing": 6496,
      "Ġzone": 6497,
      "Â°": 6498,
      "Ġsle": 6499,
      "ĠBrian": 6500,
      "Ġalph": 6501,
      "Ġrejected": 6502,
      "cons": 6503,
      "amic": 6504,
      "Ġbattles": 6505,
      "LA": 6506,
      "ĠBrother": 6507,
      "Ġwinner": 6508,
      "Most": 6509,
      "low": 6510,
      "ĠMun": 6511,
      "ictions": 6512,
      "Ġgeneration": 6513,
      "ĠSlov": 6514,
      "Ã£o": 6515,
      "onso": 6516,
      "iled": 6517,
      "asts": 6518,
      "South": 6519,
      "Ġfashion": 6520,
      "ĠJos": 6521,
      "rising": 6522,
      "ĠIllinois": 6523,
      "300": 6524,
      "Sports": 6525,
      "Ġfought": 6526,
      "Ġfestival": 6527,
      "Ġliqu": 6528,
      "ĠRon": 6529,
      "ĠDor": 6530,
      "Ġproport": 6531,
      "ĠEth": 6532,
      "aks": 6533,
      "appe": 6534,
      "ĠClin": 6535,
      "Ġenvironmental": 6536,
      "ĠAvenue": 6537,
      "Ġisol": 6538,
      "ĠRos": 6539,
      "Ġheight": 6540,
      "ologies": 6541,
      "Ġoutput": 6542,
      "Ġassault": 6543,
      "Ġcomponents": 6544,
      "West": 6545,
      "ĠForm": 6546,
      "Ġadap": 6547,
      "Ġserves": 6548,
      "Ġdefend": 6549,
      "Ġvictim": 6550,
      "ĠMountain": 6551,
      "usalem": 6552,
      "ĠWat": 6553,
      "iverpool": 6554,
      "Ġprinciple": 6555,
      "IM": 6556,
      "ĠFair": 6557,
      "anna": 6558,
      "iterranean": 6559,
      "iac": 6560,
      "onto": 6561,
      "ĠHan": 6562,
      "ĠRet": 6563,
      "western": 6564,
      "Ä«": 6565,
      "2022": 6566,
      "Ġrespond": 6567,
      "Ġmulti": 6568,
      "Ġnick": 6569,
      "Ġends": 6570,
      "inner": 6571,
      "Ġneeds": 6572,
      "text": 6573,
      "ĠAle": 6574,
      "ĠHal": 6575,
      "1992": 6576,
      "Ġpainter": 6577,
      "Ġconnection": 6578,
      "Ġ1918": 6579,
      "Ġatmosp": 6580,
      "Ġsympt": 6581,
      "ĠVietnam": 6582,
      "Ġswe": 6583,
      "elve": 6584,
      "eta": 6585,
      "ĠEven": 6586,
      "ĠKim": 6587,
      "ĠChristmas": 6588,
      "Ġusers": 6589,
      "ĠSciences": 6590,
      "Ġweak": 6591,
      "Ġpublication": 6592,
      "ĠMedia": 6593,
      "ĠPersian": 6594,
      "ĠColombia": 6595,
      "ĠStation": 6596,
      "Ġcancer": 6597,
      "Ġrequires": 6598,
      "non": 6599,
      "Ġmap": 6600,
      "ĠDaniel": 6601,
      "udget": 6602,
      "Ġretire": 6603,
      "enness": 6604,
      "PS": 6605,
      "Ġuseful": 6606,
      "amental": 6607,
      "ĠCuba": 6608,
      "Ġuniversities": 6609,
      "07": 6610,
      "vi": 6611,
      "Ġlibrary": 6612,
      "Ġsty": 6613,
      "iph": 6614,
      "Ġ37": 6615,
      "Ġwhereas": 6616,
      "Ġdriver": 6617,
      "Ġcontributed": 6618,
      "Ġsomew": 6619,
      "2015": 6620,
      "Ġspiritual": 6621,
      "mouth": 6622,
      "oster": 6623,
      "Ġpatients": 6624,
      "aver": 6625,
      "ture": 6626,
      "Ġlocations": 6627,
      "Ġstrateg": 6628,
      "Ġsuccessfully": 6629,
      "69": 6630,
      "hus": 6631,
      "Ġlat": 6632,
      "ĠRuth": 6633,
      "Ġstock": 6634,
      "inisters": 6635,
      "Ġcourts": 6636,
      "Ġincreasingly": 6637,
      "Ãº": 6638,
      "uses": 6639,
      "Ġdisorder": 6640,
      "Ġvocal": 6641,
      "Ġaspects": 6642,
      "Ġcorrect": 6643,
      "89": 6644,
      "IT": 6645,
      "Ġeld": 6646,
      "Ġsons": 6647,
      "Ġrural": 6648,
      "zero": 6649,
      "Ġconsisting": 6650,
      "Ġguitarist": 6651,
      "ww": 6652,
      "ĠRights": 6653,
      "ĠOfficial": 6654,
      "Ġdrink": 6655,
      "To": 6656,
      "wall": 6657,
      "Ġnations": 6658,
      "Ġuniform": 6659,
      "1994": 6660,
      "Ġconfirmed": 6661,
      "Ġunderstanding": 6662,
      "Ġcool": 6663,
      "ĠPass": 6664,
      "rav": 6665,
      "Ġwalls": 6666,
      "Ġschem": 6667,
      "Ġdepending": 6668,
      "1970": 6669,
      "ĠHebrew": 6670,
      "Olympic": 6671,
      "Ġmort": 6672,
      "Ġarmed": 6673,
      "Ġemperor": 6674,
      "1993": 6675,
      "ymn": 6676,
      "ĠRepresent": 6677,
      "Ġarrang": 6678,
      "52": 6679,
      "Europe": 6680,
      "itic": 6681,
      "Ġnort": 6682,
      "ĠNeb": 6683,
      "ĠKer": 6684,
      "ouns": 6685,
      "ules": 6686,
      "Ġ34": 6687,
      "ĠRegion": 6688,
      "Ġimprove": 6689,
      "Ġpiece": 6690,
      "olt": 6691,
      "ĠMill": 6692,
      "Ġselect": 6693,
      "Ġexpression": 6694,
      "senal": 6695,
      "Ġagriculture": 6696,
      "AL": 6697,
      "Ġaer": 6698,
      "Ġsan": 6699,
      "ĠBrad": 6700,
      "ĠMarsh": 6701,
      "ĠRoll": 6702,
      "Ġowner": 6703,
      "domin": 6704,
      "Ġdepartment": 6705,
      "ĠForeign": 6706,
      "ĠArmenian": 6707,
      "Ġpermanent": 6708,
      "eline": 6709,
      "fully": 6710,
      "Art": 6711,
      "Ġcalcul": 6712,
      "aug": 6713,
      "Ġmedium": 6714,
      "Ġattacked": 6715,
      "ounded": 6716,
      "wealth": 6717,
      "ĠAtari": 6718,
      "Don": 6719,
      "Tele": 6720,
      "pread": 6721,
      "ĠSon": 6722,
      "ĠFord": 6723,
      "Ġcomic": 6724,
      "Ġ75": 6725,
      "Ġbroke": 6726,
      "ĠAmong": 6727,
      "Ġtechnique": 6728,
      "Ġconcert": 6729,
      "ĠPalace": 6730,
      "jo": 6731,
      "Ġwides": 6732,
      "Ġdry": 6733,
      "Ġuser": 6734,
      "ĠShort": 6735,
      "esh": 6736,
      "oral": 6737,
      "Ġbapt": 6738,
      "Ġlingu": 6739,
      "ceived": 6740,
      "ĠGuard": 6741,
      "ethod": 6742,
      "63": 6743,
      "cular": 6744,
      "ĠRun": 6745,
      "ronic": 6746,
      "Ġstatement": 6747,
      "Ġtechnical": 6748,
      "shire": 6749,
      "ĠTerrit": 6750,
      "Ġcards": 6751,
      "Ġstrip": 6752,
      "Ġmedalists": 6753,
      "Ġ33": 6754,
      "Ġpoliticians": 6755,
      "Äĥ": 6756,
      "atri": 6757,
      "Ġcrop": 6758,
      "ishops": 6759,
      "inder": 6760,
      "Ġdefensive": 6761,
      "ĠIndust": 6762,
      "Ġparish": 6763,
      "Ġ1914": 6764,
      "ĠVar": 6765,
      "Ġ49": 6766,
      "Ġ1951": 6767,
      "Ġabandoned": 6768,
      "Ġtim": 6769,
      "Ġbinary": 6770,
      "ĠMarc": 6771,
      "Ġholding": 6772,
      "Ġrom": 6773,
      "ĠCatal": 6774,
      "ĠFI": 6775,
      "Ġmedieval": 6776,
      "ĠCaribbean": 6777,
      "Ġstring": 6778,
      "Ġengines": 6779,
      "Ġinfluential": 6780,
      "ĠNorway": 6781,
      "Ġthousand": 6782,
      "ĠCab": 6783,
      "ctic": 6784,
      "ĠDig": 6785,
      "ĠLt": 6786,
      "Ġveget": 6787,
      "ĠAustin": 6788,
      "ĠEarly": 6789,
      "Ġfellow": 6790,
      "Ġathlet": 6791,
      "Ġstable": 6792,
      "Ġfactor": 6793,
      "Ġimproved": 6794,
      "ĠAlberta": 6795,
      "uis": 6796,
      "Ġgar": 6797,
      "ĠLiverpool": 6798,
      "Ġadvent": 6799,
      "ruit": 6800,
      "Ġstreet": 6801,
      "ĠÄ°": 6802,
      "09": 6803,
      "Ġempire": 6804,
      "ĠRem": 6805,
      "Ġmodified": 6806,
      "Ġmaintained": 6807,
      "Ġheadquarters": 6808,
      "ĠBulgarian": 6809,
      "Ġalgorithm": 6810,
      "ĠTreaty": 6811,
      "rell": 6812,
      "igation": 6813,
      "ĠHy": 6814,
      "ĠFried": 6815,
      "Ġinters": 6816,
      "Ġresident": 6817,
      "room": 6818,
      "ĠLike": 6819,
      "Ġapproved": 6820,
      "Ġphenomen": 6821,
      "ĠTar": 6822,
      "resents": 6823,
      "Ġattract": 6824,
      "Ġsurvey": 6825,
      "rayer": 6826,
      "Ġinjury": 6827,
      "ĠJerusalem": 6828,
      "08": 6829,
      "Ġcore": 6830,
      "Ġstadium": 6831,
      "Ġexped": 6832,
      "Ġdesigns": 6833,
      "ĠPlan": 6834,
      "Ġeducational": 6835,
      "Ġelimin": 6836,
      "Ġscientists": 6837,
      "Ġcolonial": 6838,
      "Populated": 6839,
      "Ġfrag": 6840,
      "Ġprint": 6841,
      "ussian": 6842,
      "Ġrepeated": 6843,
      "uate": 6844,
      "zona": 6845,
      "Ġpeoples": 6846,
      "Ġrivers": 6847,
      "1991": 6848,
      "ĠHistoric": 6849,
      "ĠAlan": 6850,
      "Ġdates": 6851,
      "ĠLady": 6852,
      "Ġatoms": 6853,
      "ĠJam": 6854,
      "Ġspons": 6855,
      "Ġexperienced": 6856,
      "eman": 6857,
      "ĠLight": 6858,
      "agues": 6859,
      "eller": 6860,
      "Ġspot": 6861,
      "Ġraces": 6862,
      "Ġtribes": 6863,
      "Death": 6864,
      "ĠDirector": 6865,
      "Ġpilot": 6866,
      "53": 6867,
      "Many": 6868,
      "cies": 6869,
      "Ġdensity": 6870,
      "urance": 6871,
      "andom": 6872,
      "Ġobtain": 6873,
      "Ġconsisted": 6874,
      "Ġcopies": 6875,
      "Ġgoddess": 6876,
      "Ġwing": 6877,
      "ĠMach": 6878,
      "Ġvent": 6879,
      "Ġrich": 6880,
      "ĠBuff": 6881,
      "ĠTaylor": 6882,
      "Ġairport": 6883,
      "ĠEgyptian": 6884,
      "top": 6885,
      "load": 6886,
      "then": 6887,
      "isd": 6888,
      "ĠSus": 6889,
      "osed": 6890,
      "Ġrh": 6891,
      "ĠAffairs": 6892,
      "Bibliography": 6893,
      "neg": 6894,
      "ĠAbu": 6895,
      "Ġvisual": 6896,
      "Ġ300": 6897,
      "ĠAdam": 6898,
      "Ġprotein": 6899,
      "ao": 6900,
      "etary": 6901,
      "aret": 6902,
      "Ġsufficient": 6903,
      "Ġvillages": 6904,
      "Roman": 6905,
      "ĠCre": 6906,
      "ĠBruce": 6907,
      "Ġ(,": 6908,
      "uties": 6909,
      "Ġchain": 6910,
      "Ġimages": 6911,
      "Ġfounding": 6912,
      "Ġarticles": 6913,
      "Ġrepresents": 6914,
      "Ġtwenty": 6915,
      "Ġcoastal": 6916,
      "Ġthousands": 6917,
      "Ġcert": 6918,
      "Ġexception": 6919,
      "owned": 6920,
      "Ġdropped": 6921,
      "ĠCyprus": 6922,
      "Ġwidespread": 6923,
      "ET": 6924,
      "Ġsust": 6925,
      "Ġrepro": 6926,
      "Ġvir": 6927,
      "sea": 6928,
      "seud": 6929,
      "International": 6930,
      "inding": 6931,
      "Ġformula": 6932,
      "Ġ1933": 6933,
      "Ġ1927": 6934,
      "Ġtesting": 6935,
      "rastructure": 6936,
      "79": 6937,
      "mont": 6938,
      "abul": 6939,
      "Ġagent": 6940,
      "Ġdeliver": 6941,
      "Ġbond": 6942,
      "Rel": 6943,
      "ni": 6944,
      "inction": 6945,
      "abil": 6946,
      "Ġrelation": 6947,
      "Ġrevolution": 6948,
      "Ġviolence": 6949,
      "ĠToday": 6950,
      "Ġperformances": 6951,
      "stan": 6952,
      "Ġ64": 6953,
      "Ġopera": 6954,
      "Ġpurposes": 6955,
      "05": 6956,
      "Ass": 6957,
      "vo": 6958,
      "Ġrear": 6959,
      "2013": 6960,
      "Ġpractices": 6961,
      "Ġcycle": 6962,
      "Career": 6963,
      "Ġphr": 6964,
      "ĠMediterranean": 6965,
      "cules": 6966,
      "ĠBangladesh": 6967,
      "Ġtalk": 6968,
      "ĠGDP": 6969,
      "Ġclin": 6970,
      "contin": 6971,
      "Ġexam": 6972,
      "ĠThird": 6973,
      "ĠReview": 6974,
      "Ġcomposition": 6975,
      "Ġinvolving": 6976,
      "ĠRegiment": 6977,
      "ĠFranklin": 6978,
      "ji": 6979,
      "ĠDet": 6980,
      "ĠDanish": 6981,
      "athan": 6982,
      "ropical": 6983,
      "Ġsolo": 6984,
      "Ġfocused": 6985,
      "otten": 6986,
      "ĠFederation": 6987,
      "Ġhighway": 6988,
      "rowd": 6989,
      "Ġ1928": 6990,
      "ĠMcC": 6991,
      "ĠHospital": 6992,
      "Ġalter": 6993,
      "Ġsuff": 6994,
      "ĠMedal": 6995,
      "Ġcolonies": 6996,
      "fare": 6997,
      "Ġhair": 6998,
      "ĠCas": 6999,
      "ĠEuro": 7000,
      "Ġotherwise": 7001,
      "Ġsuccessor": 7002,
      "ĠWindows": 7003,
      "US": 7004,
      "ether": 7005,
      "2017": 7006,
      "Ġpassing": 7007,
      "Ġdivisions": 7008,
      "Ġaffected": 7009,
      "ÃŃa": 7010,
      "Ġsort": 7011,
      "Ġresemb": 7012,
      "hedral": 7013,
      "Ġscoring": 7014,
      "ĠColon": 7015,
      "cycl": 7016,
      "Ġparticipated": 7017,
      "Ġprice": 7018,
      "Histor": 7019,
      "oen": 7020,
      "Ġexerc": 7021,
      "1989": 7022,
      "ursing": 7023,
      "Ġstraight": 7024,
      "angel": 7025,
      "Ġcrim": 7026,
      "ĠNorwegian": 7027,
      "Ġwithdraw": 7028,
      "bell": 7029,
      "ĠEll": 7030,
      "apes": 7031,
      "Ġ44": 7032,
      "ĠAS": 7033,
      "Ġthir": 7034,
      "Ġperhaps": 7035,
      "Ġmanuscript": 7036,
      "2014": 7037,
      "Ġgoods": 7038,
      "Ġtask": 7039,
      "ĠLuther": 7040,
      "Ġbrothers": 7041,
      "Ġroughly": 7042,
      "ĠAnthony": 7043,
      "Ġtank": 7044,
      "Ġmist": 7045,
      "ĠBh": 7046,
      "Ġpreced": 7047,
      "Ġedge": 7048,
      "Ġjudge": 7049,
      "ais": 7050,
      "ti": 7051,
      "arat": 7052,
      "ĠCirc": 7053,
      "ĠMax": 7054,
      "iful": 7055,
      "antly": 7056,
      "Ġpartner": 7057,
      "Ġtemperatures": 7058,
      "Ġincorporated": 7059,
      "%)": 7060,
      "OL": 7061,
      "Ġtennis": 7062,
      "Ġvac": 7063,
      "hens": 7064,
      "ierre": 7065,
      "clusion": 7066,
      "Ġopin": 7067,
      "Ġ1936": 7068,
      "Ġgoes": 7069,
      "ĠAssy": 7070,
      "Ġ1929": 7071,
      "Ġwins": 7072,
      "Ġcru": 7073,
      "Ġpure": 7074,
      "etime": 7075,
      "rome": 7076,
      "riff": 7077,
      "poss": 7078,
      "Ġdescription": 7079,
      "French": 7080,
      "ĠDiego": 7081,
      "Ġcold": 7082,
      "lected": 7083,
      "Ġfloor": 7084,
      "Ġinvent": 7085,
      "Ġreleg": 7086,
      "Ġsimpl": 7087,
      "Ġcapture": 7088,
      "Ġsymptoms": 7089,
      "77": 7090,
      "Cont": 7091,
      "gl": 7092,
      "eless": 7093,
      "tery": 7094,
      "unch": 7095,
      "Ġexists": 7096,
      "Ġconcentration": 7097,
      "called": 7098,
      "ĠOt": 7099,
      "rane": 7100,
      "Ġincident": 7101,
      "Ġaccident": 7102,
      "theless": 7103,
      "Ġaccompan": 7104,
      "ES": 7105,
      "Ġexternal": 7106,
      "Ġtransition": 7107,
      "Bar": 7108,
      "ipe": 7109,
      "ĠTit": 7110,
      "Ġentertain": 7111,
      "ĠFrancis": 7112,
      "come": 7113,
      "ĠAthlet": 7114,
      "ĠFal": 7115,
      "Ġago": 7116,
      "Ġdecor": 7117,
      "Ġrecognition": 7118,
      "Ġnewspapers": 7119,
      "Ġescape": 7120,
      "Ġparallel": 7121,
      "En": 7122,
      "Ġille": 7123,
      "Ġtherm": 7124,
      "arks": 7125,
      "ĠBrand": 7126,
      "Ġarbit": 7127,
      "Ġ400": 7128,
      "Ġmovements": 7129,
      "Ġsevere": 7130,
      "Ġconcrete": 7131,
      "Ġdocuments": 7132,
      "Ġemerged": 7133,
      "ĠWeek": 7134,
      "Ġprohib": 7135,
      "1988": 7136,
      "Ġfreedom": 7137,
      "ĠPortugal": 7138,
      "Following": 7139,
      "atically": 7140,
      "Ġsand": 7141,
      "ĠTs": 7142,
      "ateur": 7143,
      "aki": 7144,
      "ĠMarg": 7145,
      "sterdam": 7146,
      "Ġcategory": 7147,
      "ĠBelgium": 7148,
      "Ġcriminal": 7149,
      "raska": 7150,
      "wana": 7151,
      "idae": 7152,
      "ĠHell": 7153,
      "Ġ1919": 7154,
      "emen": 7155,
      "ĠGÃ¶": 7156,
      "Ġyield": 7157,
      "Ġteach": 7158,
      "Ġplayoff": 7159,
      "Ġoperate": 7160,
      "Ġdocumentary": 7161,
      "Ġastronaut": 7162,
      "Ġextremely": 7163,
      "Ġpolicies": 7164,
      "oust": 7165,
      "ĠTony": 7166,
      "Ġnaval": 7167,
      "ĠMaced": 7168,
      "Ġ1922": 7169,
      "ridges": 7170,
      "She": 7171,
      "á¹": 7172,
      "iversary": 7173,
      "Ġdescend": 7174,
      "engers": 7175,
      "Ġaffect": 7176,
      "Ġsixth": 7177,
      "Ġemerg": 7178,
      "ĠJacob": 7179,
      "Sources": 7180,
      "emis": 7181,
      "ĠOri": 7182,
      "ĠAli": 7183,
      "2016": 7184,
      "rises": 7185,
      "ĠCroatian": 7186,
      "Ġcrown": 7187,
      "omot": 7188,
      "ĠWrit": 7189,
      "ĠNative": 7190,
      "Ġvo": 7191,
      "Ġdemand": 7192,
      "ĠBosnia": 7193,
      "Ð¾": 7194,
      "orus": 7195,
      "olas": 7196,
      "ĠLeon": 7197,
      "Ġleads": 7198,
      "ĠAnglo": 7199,
      "Ġrepresenting": 7200,
      "Ġsituated": 7201,
      "57": 7202,
      "CS": 7203,
      "Ġthrow": 7204,
      "Ġusage": 7205,
      "ĠVis": 7206,
      "Ġworship": 7207,
      "Ġdiscip": 7208,
      "Ġpoem": 7209,
      "ĠBusiness": 7210,
      "ĠSum": 7211,
      "stal": 7212,
      "ĠFire": 7213,
      "2018": 7214,
      "othing": 7215,
      "ĠOperation": 7216,
      "ĠKnight": 7217,
      "86": 7218,
      "ĠEver": 7219,
      "Ġlegend": 7220,
      "Ġmathematic": 7221,
      "prise": 7222,
      "Ġwa": 7223,
      "Ġwant": 7224,
      "ĠAcc": 7225,
      "Ġans": 7226,
      "sex": 7227,
      "Ġentry": 7228,
      "ĠHighway": 7229,
      "Ġtells": 7230,
      "esc": 7231,
      "Ġvast": 7232,
      "ocese": 7233,
      "Ġkil": 7234,
      "ructions": 7235,
      "Ġoffensive": 7236,
      "Ġabsol": 7237,
      "ĠMemorial": 7238,
      "ĠNASA": 7239,
      "46": 7240,
      "92": 7241,
      "eed": 7242,
      "vements": 7243,
      "Ġca": 7244,
      "Ġbran": 7245,
      "Ġteacher": 7246,
      "Ġguard": 7247,
      "Ġaccounts": 7248,
      "83": 7249,
      "85": 7250,
      "burn": 7251,
      "ĠHin": 7252,
      "Ġplate": 7253,
      "Ġreturning": 7254,
      "Ġseparated": 7255,
      "ĠHitler": 7256,
      "97": 7257,
      "VD": 7258,
      "Ġweather": 7259,
      "oli": 7260,
      "opt": 7261,
      "aeus": 7262,
      "Ġbands": 7263,
      "ĠĠĠĠĠĠĠĠĠĠĠĠĠĠĠĠ": 7264,
      "track": 7265,
      "06": 7266,
      "Ġpione": 7267,
      "oses": 7268,
      "Ġpros": 7269,
      "Ġpopulations": 7270,
      "Ġsurre": 7271,
      "Ġcapable": 7272,
      "Ġgenetic": 7273,
      "ennessee": 7274,
      "iable": 7275,
      "instein": 7276,
      "icide": 7277,
      "ĠSeveral": 7278,
      "emale": 7279,
      "ĠUt": 7280,
      "Ġcommitted": 7281,
      "ĠCommand": 7282,
      "Ġclassified": 7283,
      "uy": 7284,
      "ĠDur": 7285,
      "ĠGil": 7286,
      "Ġplot": 7287,
      "ophical": 7288,
      "Ġshortly": 7289,
      "ections": 7290,
      "uh": 7291,
      "Ġmorning": 7292,
      "Ġvotes": 7293,
      "ĠChris": 7294,
      "Ġracing": 7295,
      "ĠAnne": 7296,
      "ĠMichigan": 7297,
      "Ġfrequency": 7298,
      "itzerland": 7299,
      "after": 7300,
      "edd": 7301,
      "Ġinform": 7302,
      "Ġgram": 7303,
      "ĠOk": 7304,
      "ĠAnat": 7305,
      "Ġdoct": 7306,
      "Ã©e": 7307,
      "Ġmusician": 7308,
      "ĠMountains": 7309,
      "Ġmessage": 7310,
      "Nov": 7311,
      "âĪĴ": 7312,
      "arp": 7313,
      "ĠCow": 7314,
      "ĠVi": 7315,
      "Ġvalid": 7316,
      "ĠRussell": 7317,
      "Ġestablishment": 7318,
      "CD": 7319,
      "Ġtor": 7320,
      "lets": 7321,
      "udes": 7322,
      "Ġ36": 7323,
      "Ġspeakers": 7324,
      "Ġskin": 7325,
      "ĠDouglas": 7326,
      "ushed": 7327,
      "avel": 7328,
      "Ġreserv": 7329,
      "Ġshowing": 7330,
      "ĠBefore": 7331,
      "ĠTransport": 7332,
      "ĠDenmark": 7333,
      "RI": 7334,
      "Ġign": 7335,
      "Ġcod": 7336,
      "Ġcrisis": 7337,
      "ĠDoc": 7338,
      "Ġheard": 7339,
      "ĠHead": 7340,
      "ĠArmenia": 7341,
      "ĠRoger": 7342,
      "Notable": 7343,
      "Pre": 7344,
      "Ã¢": 7345,
      "iner": 7346,
      "Ġmouth": 7347,
      "Ġextent": 7348,
      "Ġcolleges": 7349,
      "ĠPatri": 7350,
      "Ġinnov": 7351,
      "ĠNich": 7352,
      "ession": 7353,
      "ĠConnect": 7354,
      "Ġ1937": 7355,
      "Ġmissing": 7356,
      "Ġcontinuous": 7357,
      "Ġcouple": 7358,
      "93": 7359,
      "Ġsun": 7360,
      "Ġrecept": 7361,
      "otal": 7362,
      "Ġstress": 7363,
      "Ġ1932": 7364,
      "Ġtraditions": 7365,
      "Ġdeliv": 7366,
      "Ġattributed": 7367,
      "Ġadapted": 7368,
      "itals": 7369,
      "Ġ1917": 7370,
      "Ġapart": 7371,
      "ĠBeach": 7372,
      "ĠAges": 7373,
      "Ġdecline": 7374,
      "ĠSamuel": 7375,
      "Ġcastle": 7376,
      "Ġconcerns": 7377,
      "ĠTemple": 7378,
      "Ġfram": 7379,
      "Ġshall": 7380,
      "iders": 7381,
      "uled": 7382,
      "Ġcheck": 7383,
      "87": 7384,
      "box": 7385,
      "know": 7386,
      "Ġfranch": 7387,
      "ĠKy": 7388,
      "Ġappropri": 7389,
      "Ġhardware": 7390,
      "Ġnormally": 7391,
      "eda": 7392,
      "Ġdoll": 7393,
      "ĠDomin": 7394,
      "Ġintellect": 7395,
      "anga": 7396,
      "ĠArsenal": 7397,
      "Ġflat": 7398,
      "ĠConc": 7399,
      "Ġexplain": 7400,
      "Ġhousehold": 7401,
      "ĠHoward": 7402,
      "ĠTai": 7403,
      "ĠMaster": 7404,
      "Ġ1935": 7405,
      "Ġengaged": 7406,
      "ĠWalter": 7407,
      "ĠNobel": 7408,
      "Ġintern": 7409,
      "Ġinput": 7410,
      "Ġstore": 7411,
      "ĠKal": 7412,
      "ĠChampions": 7413,
      "Ġsole": 7414,
      "Ġfinish": 7415,
      "eltic": 7416,
      "Phil": 7417,
      "Ġbenef": 7418,
      "ĠProtestant": 7419,
      "Res": 7420,
      "raction": 7421,
      "Ġgeomet": 7422,
      "ĠSimon": 7423,
      "Ġtail": 7424,
      "Ġbin": 7425,
      "Ġmand": 7426,
      "ĠFa": 7427,
      "Ġscenes": 7428,
      "ika": 7429,
      "Ġbusinessman": 7430,
      "04": 7431,
      "Ġhall": 7432,
      "Ġanarch": 7433,
      "Ġdoing": 7434,
      "Ġdirectors": 7435,
      "ĠTrade": 7436,
      "96": 7437,
      "Ġwaters": 7438,
      "Ġmobile": 7439,
      "lection": 7440,
      "olia": 7441,
      "Ġlinear": 7442,
      "Ġgreatly": 7443,
      "Ġidentify": 7444,
      "ĠEarl": 7445,
      "Ġhired": 7446,
      "imore": 7447,
      "Ġdecade": 7448,
      "Ġrestrict": 7449,
      "ythm": 7450,
      "\";": 7451,
      "Ġbudget": 7452,
      "Ġretained": 7453,
      "ĠBurn": 7454,
      "Ġcontest": 7455,
      "Ġacids": 7456,
      "ĠSwiss": 7457,
      "Ġcosts": 7458,
      "Ġdetermine": 7459,
      "ĠToronto": 7460,
      "Ġquantum": 7461,
      "ĠBoys": 7462,
      "idel": 7463,
      "ĠLind": 7464,
      "Ġplane": 7465,
      "Ġprocessing": 7466,
      "Ġ1924": 7467,
      "Pr": 7468,
      "inally": 7469,
      "Ġretain": 7470,
      "Ġreferences": 7471,
      "ĠMinn": 7472,
      "apse": 7473,
      "Ġreviews": 7474,
      "Ġdominant": 7475,
      "Ġarrested": 7476,
      "ĠCommonwealth": 7477,
      "lon": 7478,
      "chang": 7479,
      "Ġ1900": 7480,
      "Ġ1910": 7481,
      "enses": 7482,
      "Ġcharacteristics": 7483,
      "Ġmountains": 7484,
      "Ġcited": 7485,
      "ĠBishop": 7486,
      "ĠNev": 7487,
      "Ġlink": 7488,
      "Ġoccas": 7489,
      "Ġconsiderable": 7490,
      "ĠErn": 7491,
      "Ġcomponent": 7492,
      "Ġtheorem": 7493,
      "Ġion": 7494,
      "1981": 7495,
      "Ġinfantry": 7496,
      "ĠCaptain": 7497,
      "Ġessential": 7498,
      "Ġselection": 7499,
      "51": 7500,
      "eing": 7501,
      "nership": 7502,
      "Ġwhy": 7503,
      "Ġrecip": 7504,
      "ĠAdminist": 7505,
      "Ġphilosopher": 7506,
      "Ġratio": 7507,
      "jamin": 7508,
      "asi": 7509,
      "raine": 7510,
      "acent": 7511,
      "Ġbiological": 7512,
      "Ġdebate": 7513,
      "Ġfeet": 7514,
      "Ġpersons": 7515,
      "ĠMurray": 7516,
      "Ġforests": 7517,
      "ĠGram": 7518,
      "ĠThrough": 7519,
      "Ġinstruction": 7520,
      "Ġinvolves": 7521,
      "Ġsatisf": 7522,
      "Ġthrone": 7523,
      "Ġcomparison": 7524,
      "Ġrapidly": 7525,
      "Personal": 7526,
      "harm": 7527,
      "Ġtact": 7528,
      "Ġcosm": 7529,
      "Ġment": 7530,
      "Ġlyrics": 7531,
      "Ġfear": 7532,
      "achel": 7533,
      "abilities": 7534,
      "Ġindigenous": 7535,
      "Ġcorpor": 7536,
      "Ġstrongly": 7537,
      "Ġindicate": 7538,
      "Ġmagnitude": 7539,
      "56": 7540,
      "MS": 7541,
      "icut": 7542,
      "Ġhal": 7543,
      "Ġitems": 7544,
      "ĠOd": 7545,
      "ĠVill": 7546,
      "Ġfoundation": 7547,
      "Ġ1934": 7548,
      "Ġperforming": 7549,
      "Ġscholar": 7550,
      "ĠConfuc": 7551,
      "ĠBengal": 7552,
      "his": 7553,
      "inations": 7554,
      "erts": 7555,
      "Ġbanks": 7556,
      "ĠTurn": 7557,
      "Ġisot": 7558,
      "Ġadding": 7559,
      "ĠAbra": 7560,
      "Ġstatistics": 7561,
      "ĠFlight": 7562,
      "bishop": 7563,
      "sky": 7564,
      "Ġreaching": 7565,
      "ĠGÃ¼": 7566,
      "Ġdepos": 7567,
      "Ġnothing": 7568,
      "weight": 7569,
      "Ġmayor": 7570,
      "Ġneuro": 7571,
      "Ġextreme": 7572,
      "Ġextension": 7573,
      "Ġpromote": 7574,
      "Ġhistorians": 7575,
      "ĠBelarus": 7576,
      "Ġelectronic": 7577,
      "94": 7578,
      "father": 7579,
      "iency": 7580,
      "Ġdie": 7581,
      "igious": 7582,
      "ĠChannel": 7583,
      "idden": 7584,
      "Music": 7585,
      "Ġmathematics": 7586,
      "claimed": 7587,
      "feld": 7588,
      "Ġbill": 7589,
      "Ġbought": 7590,
      "Ġ1921": 7591,
      "ipher": 7592,
      "Ġchrom": 7593,
      "Ġshop": 7594,
      "izz": 7595,
      "Ġassass": 7596,
      "Ġcoverage": 7597,
      "Ġnetworks": 7598,
      "Ġbehavi": 7599,
      "Ġhorse": 7600,
      "Ġliquid": 7601,
      "long": 7602,
      "onom": 7603,
      "ĠMes": 7604,
      "achers": 7605,
      "Ġatomic": 7606,
      "Ġrow": 7607,
      "ikh": 7608,
      "ĠSpring": 7609,
      "Ġfine": 7610,
      "ĠGib": 7611,
      "ĠKa": 7612,
      "ĠAlger": 7613,
      "Ġcooper": 7614,
      "Ġaccused": 7615,
      "Ġdegrees": 7616,
      "Ġstyles": 7617,
      "ĠRab": 7618,
      "ĠNBC": 7619,
      "ophers": 7620,
      "ishment": 7621,
      "Ġassumed": 7622,
      "Ġemployees": 7623,
      "ĠArea": 7624,
      "ĠJohann": 7625,
      "Ġsomewhat": 7626,
      "Leg": 7627,
      "ĠPC": 7628,
      "Ġyards": 7629,
      "Ġmetals": 7630,
      "Ġdetails": 7631,
      "La": 7632,
      "Ġmurd": 7633,
      "ĠFinal": 7634,
      "ĠEric": 7635,
      "illes": 7636,
      "Ġexpect": 7637,
      "Ġsynd": 7638,
      "Ġforming": 7639,
      "Ġ1923": 7640,
      "di": 7641,
      "Ġcamer": 7642,
      "Ġmilit": 7643,
      "Ġgiant": 7644,
      "aga": 7645,
      "Ġ1925": 7646,
      "Ġtreated": 7647,
      "Ġoxid": 7648,
      "Ġdialect": 7649,
      "Ð¸": 7650,
      "Ġzero": 7651,
      "Ġcovers": 7652,
      "Ġ(;": 7653,
      "Ġyour": 7654,
      "Ġachieve": 7655,
      "Ġfavour": 7656,
      "Ġtraditionally": 7657,
      "Ġneighborhood": 7658,
      "riers": 7659,
      "ĠKansas": 7660,
      "Ġrecon": 7661,
      "Ġtrains": 7662,
      "ĠGermans": 7663,
      "ĠAllen": 7664,
      "ĠUSA": 7665,
      "Ġ1926": 7666,
      "University": 7667,
      "ĠDisplacement": 7668,
      "Ġinner": 7669,
      "ĠDue": 7670,
      "asters": 7671,
      "Ġshut": 7672,
      "Ġcharged": 7673,
      "tym": 7674,
      "ĠPrin": 7675,
      "ĠPrim": 7676,
      "ĠHungary": 7677,
      "ĠCosta": 7678,
      "03": 7679,
      "run": 7680,
      "Ġfly": 7681,
      "ĠBed": 7682,
      "ĠMas": 7683,
      "Ġimag": 7684,
      "Ġcommittee": 7685,
      "ĠAmsterdam": 7686,
      "Ġexisted": 7687,
      "Ġdiagn": 7688,
      "Ġroads": 7689,
      "avalry": 7690,
      "ĠWallace": 7691,
      "uv": 7692,
      "ĠAqu": 7693,
      "oming": 7694,
      "iox": 7695,
      "ĠSwitzerland": 7696,
      "ĠArizona": 7697,
      "Ġtry": 7698,
      "ĠSix": 7699,
      "ĠCR": 7700,
      "ĠBav": 7701,
      "ĠDC": 7702,
      "Ġestate": 7703,
      "Ġpassenger": 7704,
      "Ġvalley": 7705,
      "Ġmissions": 7706,
      "Bo": 7707,
      "Sw": 7708,
      "Ġfile": 7709,
      "Ġfresh": 7710,
      "ĠTennessee": 7711,
      "rik": 7712,
      "Ġunus": 7713,
      "Ġdispl": 7714,
      "onstruction": 7715,
      "Ġinterpretation": 7716,
      "tes": 7717,
      "Ġfacility": 7718,
      "po": 7719,
      "ivation": 7720,
      "ĠGulf": 7721,
      "Ġspaces": 7722,
      "Ġeffectively": 7723,
      "Ġclean": 7724,
      "Ġadvertising": 7725,
      "Ġceremony": 7726,
      "ĠRoute": 7727,
      "43": 7728,
      "rings": 7729,
      "erted": 7730,
      "ĠMethod": 7731,
      "ocol": 7732,
      "uble": 7733,
      "apore": 7734,
      "Ġperiods": 7735,
      "ĠRomanian": 7736,
      "ĠHollywood": 7737,
      "Ġpriest": 7738,
      "going": 7739,
      "inian": 7740,
      "ificial": 7741,
      "Ġcolony": 7742,
      "Ġbrown": 7743,
      "Ġdiscovery": 7744,
      "Ġmeasures": 7745,
      "Ġcredited": 7746,
      "Ġcustom": 7747,
      "ĠBuddhist": 7748,
      "Ġaired": 7749,
      "Ġdating": 7750,
      "ĠBalk": 7751,
      "Ġgall": 7752,
      "ĠRen": 7753,
      "Ġkid": 7754,
      "Ġinterpre": 7755,
      "ĠClinton": 7756,
      "erg": 7757,
      "Ġcogn": 7758,
      "Ġpitch": 7759,
      "ĠLive": 7760,
      "abled": 7761,
      "ĠStone": 7762,
      "ordon": 7763,
      "Ġattached": 7764,
      "ĠOnly": 7765,
      "1987": 7766,
      "ĠPolice": 7767,
      "1960": 7768,
      "Ġfeed": 7769,
      "Ġgradually": 7770,
      "Ġeyes": 7771,
      "Ġconscious": 7772,
      "ailed": 7773,
      "Ġflood": 7774,
      "ĠConvention": 7775,
      "ĠHarry": 7776,
      "Ġprinciples": 7777,
      "42": 7778,
      "Us": 7779,
      "lig": 7780,
      "uilt": 7781,
      "Ġtiss": 7782,
      "Ġfal": 7783,
      "ami": 7784,
      "ĠHard": 7785,
      "Ġoverl": 7786,
      "oyd": 7787,
      "Ġrefuge": 7788,
      "pective": 7789,
      "ĠSquare": 7790,
      "ĠOrganization": 7791,
      "ugoslav": 7792,
      "ĠTok": 7793,
      "Ġvice": 7794,
      "Ġvoted": 7795,
      "aine": 7796,
      "ective": 7797,
      "ĠAdvent": 7798,
      "Ġrepresentative": 7799,
      "Ġstrike": 7800,
      "Ġvariable": 7801,
      "Australian": 7802,
      "Dem": 7803,
      "yo": 7804,
      "Ġkings": 7805,
      "Ġoffices": 7806,
      "1986": 7807,
      "mingham": 7808,
      "Ġhousing": 7809,
      "Ġmoral": 7810,
      "ĠMelbourne": 7811,
      "Fran": 7812,
      "ĠBack": 7813,
      "ĠMand": 7814,
      "Ġwritings": 7815,
      "ĠAmb": 7816,
      "Ġanalog": 7817,
      "Ġcelebrated": 7818,
      "Ġbriefly": 7819,
      "oba": 7820,
      "ĠPhilos": 7821,
      "Ġcriticism": 7822,
      "Canadian": 7823,
      "Å«": 7824,
      "emeter": 7825,
      "ĠLank": 7826,
      "Ġmanner": 7827,
      "Ġassemb": 7828,
      "Ġ1931": 7829,
      "Ġmarkets": 7830,
      "Ġencounter": 7831,
      "Ġbranches": 7832,
      "Ġtrying": 7833,
      "Ġmiles": 7834,
      "owered": 7835,
      "ĠDark": 7836,
      "ĠJane": 7837,
      "Ġlinked": 7838,
      "Ġpresidential": 7839,
      "Ġlaid": 7840,
      "Ġgene": 7841,
      "Ġstret": 7842,
      "ĠFil": 7843,
      "ĠWalk": 7844,
      "ĠNiger": 7845,
      "Ġatom": 7846,
      "Ġentitled": 7847,
      "Ġinvestment": 7848,
      "ĠFrederick": 7849,
      "Ġdelivered": 7850,
      "but": 7851,
      "Ġaware": 7852,
      "Ġpages": 7853,
      "ĠMit": 7854,
      "oca": 7855,
      "overnment": 7856,
      "ĠPhilippines": 7857,
      "Ġhunting": 7858,
      "net": 7859,
      "ĠSri": 7860,
      "cht": 7861,
      "ĠDown": 7862,
      "ĠGran": 7863,
      "ĠLo": 7864,
      "Ġlect": 7865,
      "ĠReport": 7866,
      "Ġincreases": 7867,
      "Ġimprison": 7868,
      "Ġpenalty": 7869,
      "elaide": 7870,
      "emetery": 7871,
      "cow": 7872,
      "Ġcrowd": 7873,
      "ĠChad": 7874,
      "soft": 7875,
      "Ġpredomin": 7876,
      "Ä±r": 7877,
      "Ġrepresentation": 7878,
      "72": 7879,
      "atab": 7880,
      "Ġformally": 7881,
      "1976": 7882,
      "Ġcharacterized": 7883,
      "Ġprovinces": 7884,
      "76": 7885,
      "mun": 7886,
      "Ðµ": 7887,
      "roph": 7888,
      "ĠHong": 7889,
      "Ġroutes": 7890,
      "orship": 7891,
      "Ġexecuted": 7892,
      "Ġsurviving": 7893,
      "Ġcorresponding": 7894,
      "Ġsell": 7895,
      "ĠCreek": 7896,
      "avid": 7897,
      "Ġchampions": 7898,
      "ourse": 7899,
      "Ġintelligence": 7900,
      "ĠAncient": 7901,
      "Ġassembly": 7902,
      "ĠImperial": 7903,
      "Ġprepared": 7904,
      "Ġopposite": 7905,
      "ĠNebraska": 7906,
      "real": 7907,
      "Ġinher": 7908,
      "istical": 7909,
      "tainment": 7910,
      "Ġdrawn": 7911,
      "oids": 7912,
      "Ġdraft": 7913,
      "ĠHarvard": 7914,
      "Ġdistributed": 7915,
      "ĠSquadron": 7916,
      "Ġdrugs": 7917,
      "Ġchairman": 7918,
      "Co": 7919,
      "pen": 7920,
      "Ġsale": 7921,
      "alus": 7922,
      "esota": 7923,
      "Ġfaced": 7924,
      "Ġtouch": 7925,
      "Ġbears": 7926,
      "aked": 7927,
      "1984": 7928,
      "scape": 7929,
      "Ġfaculty": 7930,
      "ĠMuslims": 7931,
      "Ġpiano": 7932,
      "ĠPit": 7933,
      "Ġexport": 7934,
      "Ġevolved": 7935,
      "ĠZh": 7936,
      "pine": 7937,
      "Ġemp": 7938,
      "ĠHand": 7939,
      "ĠHans": 7940,
      "ĠRyan": 7941,
      "Ġviewed": 7942,
      "ĠLawrence": 7943,
      "EM": 7944,
      "Ġtall": 7945,
      "aman": 7946,
      "ĠEU": 7947,
      "Ġmembership": 7948,
      "Ġopportunity": 7949,
      "cribed": 7950,
      "Ġstrict": 7951,
      "Ġplanning": 7952,
      "ĠInformation": 7953,
      "ĠStaff": 7954,
      "onder": 7955,
      "Ġresc": 7956,
      "ĠThough": 7957,
      "Ġaccord": 7958,
      "Ġguest": 7959,
      "Ġtrust": 7960,
      "1985": 7961,
      "ruption": 7962,
      "Ġjurisd": 7963,
      "xic": 7964,
      "orney": 7965,
      "roup": 7966,
      "ĠTun": 7967,
      "ĠPot": 7968,
      "ĠHop": 7969,
      "Ġ1913": 7970,
      "Ġexpos": 7971,
      "ĠHeart": 7972,
      "Ġclassic": 7973,
      "Ġrequest": 7974,
      "Ġpasses": 7975,
      "ĠSecurity": 7976,
      "Ġsoldier": 7977,
      "Ġmerch": 7978,
      "deen": 7979,
      "Ġsurvived": 7980,
      "ĠTelevision": 7981,
      "ĠWin": 7982,
      "ellite": 7983,
      "uster": 7984,
      "Ġcalling": 7985,
      "ĠBuilding": 7986,
      "ĠBattalion": 7987,
      "Ġalphabet": 7988,
      "NP": 7989,
      "rating": 7990,
      "Ġmart": 7991,
      "ĠHou": 7992,
      "ĠFather": 7993,
      "ensed": 7994,
      "casting": 7995,
      "Ġfunding": 7996,
      "ĠMalays": 7997,
      "Ġresponsibility": 7998,
      "Ġnickn": 7999,
      "Ġwars": 8000,
      "ĠCry": 8001,
      "style": 8002,
      "ĠHind": 8003,
      "ategy": 8004,
      "Ġshif": 8005,
      "Ġtrav": 8006,
      "Ġ65": 8007,
      "Ġstrategy": 8008,
      "Ġradiation": 8009,
      "ĠBelgian": 8010,
      "ĠContin": 8011,
      "Ġangle": 8012,
      "cyclop": 8013,
      "erals": 8014,
      "Ġeye": 8015,
      "ayer": 8016,
      "ĠDak": 8017,
      "ĠNever": 8018,
      "Ġmedals": 8019,
      "Ġslaves": 8020,
      "Ġexplained": 8021,
      "who": 8022,
      "Ġpoetry": 8023,
      "Reg": 8024,
      "Ġhour": 8025,
      "Ġnav": 8026,
      "ĠLi": 8027,
      "ĠYan": 8028,
      "aza": 8029,
      "ĠHamilton": 8030,
      "Ġtur": 8031,
      "Ġovers": 8032,
      "Ġ1912": 8033,
      "Ġstorm": 8034,
      "Ġchemistry": 8035,
      "ĠBuffalo": 8036,
      "LU": 8037,
      "zeg": 8038,
      "lyn": 8039,
      "ourney": 8040,
      "Ġspeak": 8041,
      "Ġclassification": 8042,
      "Ġstanding": 8043,
      "Ġtransportation": 8044,
      "Ġdominated": 8045,
      "ĠConstantin": 8046,
      "Will": 8047,
      "Ġsed": 8048,
      "Ġfest": 8049,
      "Ġperfect": 8050,
      "2020": 8051,
      "Ġreputation": 8052,
      "ĠPhill": 8053,
      "Ġreceiving": 8054,
      "ĠAnderson": 8055,
      "Ġadvoc": 8056,
      "Ġfundamental": 8057,
      "Ġretirement": 8058,
      "Ag": 8059,
      "ĠMoh": 8060,
      "Ġworth": 8061,
      "Ġsupposed": 8062,
      "Another": 8063,
      "Ġphysics": 8064,
      "Ġlearned": 8065,
      "41": 8066,
      "rant": 8067,
      "ĠThen": 8068,
      "Ġrandom": 8069,
      "oka": 8070,
      "onsin": 8071,
      "Ġassess": 8072,
      "Ġdelay": 8073,
      "Ġsubsid": 8074,
      "Ġaster": 8075,
      "Ġtools": 8076,
      "idge": 8077,
      "lik": 8078,
      "elson": 8079,
      "ĠPhys": 8080,
      "forcement": 8081,
      "91": 8082,
      "Ġasc": 8083,
      "ĠRoy": 8084,
      "ussels": 8085,
      "enny": 8086,
      "isconsin": 8087,
      "ĠDavis": 8088,
      "Ġensure": 8089,
      "Ġhoriz": 8090,
      "ĠLegisl": 8091,
      "Ġbalance": 8092,
      "Ġtherapy": 8093,
      "ĠAal": 8094,
      "ĠTy": 8095,
      "ĠBry": 8096,
      "Ġnom": 8097,
      "iveness": 8098,
      "Ġdeclined": 8099,
      "ĠDemocr": 8100,
      "Ġtanks": 8101,
      "Ġtheatre": 8102,
      "Ġpul": 8103,
      "Ġconference": 8104,
      "odium": 8105,
      "ĠOm": 8106,
      "athy": 8107,
      "ĠAndre": 8108,
      "Ġstands": 8109,
      "ĠArkansas": 8110,
      "Ed": 8111,
      "han": 8112,
      "Ġfired": 8113,
      "Ġbip": 8114,
      "ĠSin": 8115,
      "ĠGoth": 8116,
      "ovina": 8117,
      "Ġenh": 8118,
      "Ġremark": 8119,
      "Ġreplacing": 8120,
      "Ġmassive": 8121,
      "Ġdiseases": 8122,
      "Ġscreenwriter": 8123,
      "ĠAlexandria": 8124,
      "ĠBetween": 8125,
      "ĠKentucky": 8126,
      "European": 8127,
      "heastern": 8128,
      "inated": 8129,
      "Ġgirl": 8130,
      "ĠStock": 8131,
      "Ġcolour": 8132,
      "Ġmonaster": 8133,
      "ĠMedical": 8134,
      "Ġlowest": 8135,
      "Ġanimated": 8136,
      "ĠPalest": 8137,
      "Ġtransmission": 8138,
      "Ġmode": 8139,
      "ĠReal": 8140,
      "Ġsquad": 8141,
      "Ġregularly": 8142,
      "Ġcontroversy": 8143,
      "Ġconsecutive": 8144,
      "HE": 8145,
      "Par": 8146,
      "Ġwine": 8147,
      "Ġalumin": 8148,
      "osph": 8149,
      "Ġeval": 8150,
      "ĠBenjamin": 8151,
      "ĠSymphony": 8152,
      "Met": 8153,
      "ĠLang": 8154,
      "Ġanch": 8155,
      "Ġimperial": 8156,
      "ĠBrook": 8157,
      "Ġprotected": 8158,
      "evin": 8159,
      "ĠOperator": 8160,
      "Ġrequirements": 8161,
      "ista": 8162,
      "Ġ1916": 8163,
      "ĠRand": 8164,
      "keley": 8165,
      "Ġsigns": 8166,
      "Ġappeal": 8167,
      "Ġbroken": 8168,
      "Ġmanufacturing": 8169,
      "Ġunderstand": 8170,
      "Ġaccompanied": 8171,
      "hard": 8172,
      "ser": 8173,
      "ĠSuch": 8174,
      "Ġlot": 8175,
      "ĠOnce": 8176,
      "Ġsuperior": 8177,
      "ĠColumbus": 8178,
      "Ġbiggest": 8179,
      "night": 8180,
      "Ê¼": 8181,
      "atics": 8182,
      "Ġster": 8183,
      "Ġ().": 8184,
      "endar": 8185,
      "ĠAlliance": 8186,
      "ĠGlobal": 8187,
      "celona": 8188,
      "ĠAuthor": 8189,
      "ĠAbraham": 8190,
      "ĠAN": 8191,
      "ĠBM": 8192,
      "Ġanx": 8193,
      "Ġunderstood": 8194,
      "ĠBernard": 8195,
      "Ġmathematical": 8196,
      "Ġoccasionally": 8197,
      "CO": 8198,
      "No": 8199,
      "iel": 8200,
      "ĠLov": 8201,
      "ifies": 8202,
      "plete": 8203,
      "Ġcarrier": 8204,
      "Ġarrival": 8205,
      "ski": 8206,
      "Ġinhib": 8207,
      "Ġped": 8208,
      "asure": 8209,
      "ĠYugoslav": 8210,
      "Ġconsult": 8211,
      "auer": 8212,
      "Ġappoint": 8213,
      "Ġvisitors": 8214,
      "Ġdebt": 8215,
      "Ġideal": 8216,
      "ĠCrown": 8217,
      "Ġadopt": 8218,
      "ĠMPs": 8219,
      "osaurus": 8220,
      "ĠLib": 8221,
      "Ġsubstit": 8222,
      "Ġassistance": 8223,
      "Ġpremi": 8224,
      "iop": 8225,
      "Ġpup": 8226,
      "Ġstages": 8227,
      "Ġrub": 8228,
      "Ġcollected": 8229,
      "ĠBaron": 8230,
      "ĠYears": 8231,
      "aÄŁ": 8232,
      "enburg": 8233,
      "aration": 8234,
      "Ġdual": 8235,
      "Ġnote": 8236,
      "chell": 8237,
      "ounce": 8238,
      "Ġorigins": 8239,
      "ourses": 8240,
      "Ġtwelve": 8241,
      "Ġadjacent": 8242,
      "ĠAristot": 8243,
      "ĠHindu": 8244,
      "Def": 8245,
      "Ð½": 8246,
      "Ġinaug": 8247,
      "icas": 8248,
      "Ġreality": 8249,
      "Ġegg": 8250,
      "Ġacknow": 8251,
      "Ġ48": 8252,
      "Ġfled": 8253,
      "ĠConnecticut": 8254,
      "Ġhuge": 8255,
      "ĠFM": 8256,
      "season": 8257,
      "ĠStory": 8258,
      "Ġsoil": 8259,
      "Ġextens": 8260,
      "1983": 8261,
      "Ġcompeted": 8262,
      "ĠÂ°": 8263,
      "Back": 8264,
      "oa": 8265,
      "pers": 8266,
      "Ġwrest": 8267,
      "ĠAld": 8268,
      "ĠBod": 8269,
      "Ġexplo": 8270,
      "Ġvisible": 8271,
      "apping": 8272,
      "Ġquestions": 8273,
      "ĠBirmingham": 8274,
      "ĠProfessor": 8275,
      "IP": 8276,
      "Ġ120": 8277,
      "ownt": 8278,
      "Ġyellow": 8279,
      "Ġinstalled": 8280,
      "Ġtests": 8281,
      "ĠEconomic": 8282,
      "02": 8283,
      "Public": 8284,
      "mm": 8285,
      "ĠST": 8286,
      "Ġdecay": 8287,
      "otswana": 8288,
      "Ġinfrastructure": 8289,
      "IS": 8290,
      "Ġholid": 8291,
      "ĠBurg": 8292,
      "ĠNon": 8293,
      "othy": 8294,
      "ĠAgnes": 8295,
      "Ġargument": 8296,
      "Te": 8297,
      "mus": 8298,
      "ĠSax": 8299,
      "ĠBush": 8300,
      "ĠHere": 8301,
      "Ġorb": 8302,
      "Ġroots": 8303,
      "Ġdismiss": 8304,
      "Ġboat": 8305,
      "Ġrenew": 8306,
      "Ġtribe": 8307,
      "Ġcriticized": 8308,
      "ĠBahÃ¡": 8309,
      "ĠNapole": 8310,
      "ĠQueensland": 8311,
      "ĠPict": 8312,
      "antasy": 8313,
      "Ġchose": 8314,
      "2019": 8315,
      "2021": 8316,
      "Ġconson": 8317,
      "Ġgovernments": 8318,
      "Ġseconds": 8319,
      "1975": 8320,
      "Ġweapon": 8321,
      "Ġdiverse": 8322,
      "ĠConstantinople": 8323,
      "des": 8324,
      "lock": 8325,
      "Ġbone": 8326,
      "cts": 8327,
      "ĠWy": 8328,
      "ĠWolf": 8329,
      "ĠWisconsin": 8330,
      "Ġplus": 8331,
      "ricketer": 8332,
      "ĠSingapore": 8333,
      "Ġaccompl": 8334,
      "Television": 8335,
      "ania": 8336,
      "Ġber": 8337,
      "ĠDip": 8338,
      "1979": 8339,
      "Ġskills": 8340,
      "Ġinterests": 8341,
      "Ġproteins": 8342,
      "archers": 8343,
      "Ġconversion": 8344,
      "pson": 8345,
      "Ġsample": 8346,
      "Ġcable": 8347,
      "Ġfan": 8348,
      "Ġtower": 8349,
      "ĠAth": 8350,
      "ĠRoss": 8351,
      "ĠDeath": 8352,
      "Ġmoder": 8353,
      "Ġaffairs": 8354,
      "speaking": 8355,
      "Ġlegislation": 8356,
      "Ã«": 8357,
      "Ġbeer": 8358,
      "Ġ1911": 8359,
      "ĠDal": 8360,
      "Ġconj": 8361,
      "Ġtransform": 8362,
      "Ġcopper": 8363,
      "ĠCuban": 8364,
      "ĠStandard": 8365,
      "Ġabsolute": 8366,
      "ci": 8367,
      "Ġwatch": 8368,
      "Ġdress": 8369,
      "ĠSav": 8370,
      "ĠHu": 8371,
      "Ġgrown": 8372,
      "Ġprisoners": 8373,
      "Ġrarely": 8374,
      "74": 8375,
      "May": 8376,
      "pat": 8377,
      "Ġsulf": 8378,
      "Ġmales": 8379,
      "Ġnone": 8380,
      "Ġcomed": 8381,
      "Ġgenus": 8382,
      "ĠPeace": 8383,
      "ouri": 8384,
      "ĠBart": 8385,
      "ĠThor": 8386,
      "ĠMarine": 8387,
      "ĠConst": 8388,
      "Ġcarrying": 8389,
      "Ġanniversary": 8390,
      "iscop": 8391,
      "1972": 8392,
      "Ġsentence": 8393,
      "ĠKarl": 8394,
      "Ang": 8395,
      "Ġori": 8396,
      "ĠFri": 8397,
      "ĠGriff": 8398,
      "ĠLiter": 8399,
      "osy": 8400,
      "ĠNursing": 8401,
      "odge": 8402,
      "ensis": 8403,
      "rency": 8404,
      "Ġblues": 8405,
      "Ġexplan": 8406,
      "Ġconfig": 8407,
      "Ġresearchers": 8408,
      "ĠSlav": 8409,
      "Ġpainting": 8410,
      "ĠBabyl": 8411,
      "Ġprinted": 8412,
      "eli": 8413,
      "Ġupd": 8414,
      "Ġmerged": 8415,
      "Ġcandidates": 8416,
      "uisine": 8417,
      "//": 8418,
      "North": 8419,
      "east": 8420,
      "ĠCrit": 8421,
      "Ġlose": 8422,
      "Ġroot": 8423,
      "Ġparticle": 8424,
      "Ġdrums": 8425,
      "Ġtruth": 8426,
      "ĠRecord": 8427,
      "Ġabsence": 8428,
      "Cent": 8429,
      "ĠAy": 8430,
      "Ġthick": 8431,
      "Ġexcess": 8432,
      "gery": 8433,
      "Ġhistorically": 8434,
      "ĠControl": 8435,
      "Ġdomain": 8436,
      "Ġcontroversial": 8437,
      "Ġexpedition": 8438,
      "ĠMinnesota": 8439,
      "''": 8440,
      "Japan": 8441,
      "making": 8442,
      "Ġbrig": 8443,
      "ctu": 8444,
      "amics": 8445,
      "unte": 8446,
      "ĠComb": 8447,
      "Ġinstall": 8448,
      "1978": 8449,
      "ĠComputer": 8450,
      "ĠMoscow": 8451,
      "%),": 8452,
      "Film": 8453,
      "Hon": 8454,
      "zy": 8455,
      "rele": 8456,
      "ĠRaj": 8457,
      "ĠDyn": 8458,
      "Ġstating": 8459,
      "ĠLat": 8460,
      "ĠNaval": 8461,
      "Ġvel": 8462,
      "ricted": 8463,
      "overe": 8464,
      "Ġpassengers": 8465,
      "Ġelectrical": 8466,
      "Ġiniti": 8467,
      "gressive": 8468,
      "ĠÅŀ": 8469,
      "oque": 8470,
      "ĠLast": 8471,
      "tenance": 8472,
      "ĠNorman": 8473,
      "Ġoffering": 8474,
      "ĠConservative": 8475,
      "Ġinvestigation": 8476,
      "Ġgraduated": 8477,
      "ĠEntertainment": 8478,
      "lic": 8479,
      "nal": 8480,
      "ĠSay": 8481,
      "ĠMean": 8482,
      "ĠHab": 8483,
      "ĠFund": 8484,
      "Ġexceed": 8485,
      "ĠKat": 8486,
      "Ġclim": 8487,
      "overty": 8488,
      "eping": 8489,
      "81": 8490,
      "Ġmamm": 8491,
      "star": 8492,
      "ĠDVD": 8493,
      "Ġowners": 8494,
      "Ġlasted": 8495,
      "Ġproduces": 8496,
      "Former": 8497,
      "Ġdialects": 8498,
      "Ġimplemented": 8499,
      "Ġpaintings": 8500,
      "Ġsubstantial": 8501,
      "Over": 8502,
      "Ġmental": 8503,
      "Ġ1915": 8504,
      "Ġabort": 8505,
      "Ġjustice": 8506,
      "ĠDesign": 8507,
      "Ġmeasured": 8508,
      "400": 8509,
      "Î±": 8510,
      "hered": 8511,
      "race": 8512,
      "ĠEc": 8513,
      "ĠEvery": 8514,
      "Ġinterior": 8515,
      "Ġbases": 8516,
      "Ġexperiments": 8517,
      "DA": 8518,
      "Sup": 8519,
      "Ġstim": 8520,
      "irect": 8521,
      "Ġlongest": 8522,
      "Ġbacking": 8523,
      "Ġcompetitions": 8524,
      "Arch": 8525,
      "Ġpredecess": 8526,
      "Ġshooting": 8527,
      "ĠCameroon": 8528,
      "Sec": 8529,
      "lad": 8530,
      "ĠNa": 8531,
      "ĠAlc": 8532,
      "ĠBroadway": 8533,
      "Geography": 8534,
      "ĠJosÃ©": 8535,
      "Jew": 8536,
      "Men": 8537,
      "free": 8538,
      "uin": 8539,
      "Ġborders": 8540,
      "icism": 8541,
      "rose": 8542,
      "Ġdated": 8543,
      "ĠLow": 8544,
      "Ġresign": 8545,
      "Ġjazz": 8546,
      "Ġaged": 8547,
      "ĠAdelaide": 8548,
      "Ġdestruction": 8549,
      "Ġpercentage": 8550,
      "Ġcategories": 8551,
      "You": 8552,
      "aser": 8553,
      "Ġmil": 8554,
      "ĠNow": 8555,
      "estyle": 8556,
      "ecutive": 8557,
      "Ġjump": 8558,
      "Ġcommem": 8559,
      "inners": 8560,
      "Ġedited": 8561,
      "Ġfactory": 8562,
      "Ġtourism": 8563,
      "itations": 8564,
      "ĠDeb": 8565,
      "ĠGordon": 8566,
      "mentary": 8567,
      "Ġelectoral": 8568,
      "Ġvariant": 8569,
      "Ġneither": 8570,
      "ĠCooper": 8571,
      "ĠBasque": 8572,
      "Ġstopped": 8573,
      "Ġcavalry": 8574,
      "ĠCeltic": 8575,
      "oto": 8576,
      "outs": 8577,
      "ega": 8578,
      "ictionary": 8579,
      "don": 8580,
      "aso": 8581,
      "ĠIl": 8582,
      "ĠNik": 8583,
      "Ġagents": 8584,
      "annels": 8585,
      "Ġoperates": 8586,
      "onomy": 8587,
      "omial": 8588,
      "aments": 8589,
      "iege": 8590,
      "awn": 8591,
      "eneration": 8592,
      "1982": 8593,
      "SPN": 8594,
      "ĠBaltimore": 8595,
      "iblical": 8596,
      "Ġbird": 8597,
      "lete": 8598,
      "Ġreduction": 8599,
      "ĠRav": 8600,
      "ĠDisc": 8601,
      "Ġ42": 8602,
      "Ġheads": 8603,
      "ĠQuebec": 8604,
      "PC": 8605,
      "avery": 8606,
      "Ġske": 8607,
      "agre": 8608,
      "ĠInn": 8609,
      "ĠAlbum": 8610,
      "Ġresigned": 8611,
      "Ã¼k": 8612,
      "Ġruler": 8613,
      "Ġaudio": 8614,
      "Ġmechanical": 8615,
      "Ġsettlements": 8616,
      "Ġbenefit": 8617,
      "ĠDefense": 8618,
      "div": 8619,
      "oi": 8620,
      "orge": 8621,
      "omorph": 8622,
      "Ġrend": 8623,
      "Ġdefence": 8624,
      "type": 8625,
      "Ġsmoking": 8626,
      "Ġslave": 8627,
      "Ġpractical": 8628,
      "Ġrebell": 8629,
      "ĠConfederate": 8630,
      "Video": 8631,
      "Writ": 8632,
      "Ġlists": 8633,
      "using": 8634,
      "ĠLog": 8635,
      "Ġsections": 8636,
      "Ġrecordings": 8637,
      "Ġmining": 8638,
      "Ġexplos": 8639,
      "Ġphysic": 8640,
      "ĠDefence": 8641,
      "uilding": 8642,
      "inite": 8643,
      "ĠFact": 8644,
      "oked": 8645,
      "Ġpossibility": 8646,
      "ĠRomania": 8647,
      "Ġrelationships": 8648,
      "Best": 8649,
      "def": 8650,
      "iler": 8651,
      "Ġreactions": 8652,
      "elle": 8653,
      "rage": 8654,
      "ĠLM": 8655,
      "aste": 8656,
      "ĠWhit": 8657,
      "Ġrunner": 8658,
      "Ġchanging": 8659,
      "Ġfinding": 8660,
      "Ġamounts": 8661,
      "enhagen": 8662,
      "ĠDakota": 8663,
      "Her": 8664,
      "ĠTen": 8665,
      "idal": 8666,
      "ulating": 8667,
      "ĠLet": 8668,
      "allas": 8669,
      "Ġunf": 8670,
      "Ġapost": 8671,
      "Ġrestored": 8672,
      "Ġmissile": 8673,
      "ĠCommunist": 8674,
      "ĠBuilder": 8675,
      "ĠAdditionally": 8676,
      "ĠIndonesia": 8677,
      "ĠSee": 8678,
      "omical": 8679,
      "ĠSilver": 8680,
      "ĠAlexandra": 8681,
      "vation": 8682,
      "rehens": 8683,
      "itarian": 8684,
      "ĠSound": 8685,
      "ĠRena": 8686,
      "ĠKings": 8687,
      "ogether": 8688,
      "Ġindicated": 8689,
      "ĠMcG": 8690,
      "Ġhomes": 8691,
      "ĠBillboard": 8692,
      "ĠBaltic": 8693,
      "However": 8694,
      "rish": 8695,
      "Ġduties": 8696,
      "ĠBul": 8697,
      "ĠManu": 8698,
      "ĠHug": 8699,
      "ĠNord": 8700,
      "phib": 8701,
      "Ġhosts": 8702,
      "'m": 8703,
      "iations": 8704,
      "inburgh": 8705,
      "Ġmir": 8706,
      "ĠBuck": 8707,
      "anton": 8708,
      "Ġdisappe": 8709,
      "Ġsingers": 8710,
      "ĠBrussels": 8711,
      "Ġsubjects": 8712,
      "Ġmolecules": 8713,
      "Ġpreferred": 8714,
      "oft": 8715,
      "rors": 8716,
      "ĠHockey": 8717,
      "alleng": 8718,
      "ĠChristopher": 8719,
      "ĠWhat": 8720,
      "Ġparam": 8721,
      "Ġcultures": 8722,
      "Ġerror": 8723,
      "encing": 8724,
      "Ġgrounds": 8725,
      "Ġcommissioned": 8726,
      "Ġvessels": 8727,
      "ĠBaptist": 8728,
      "Per": 8729,
      "eenth": 8730,
      "Ġahead": 8731,
      "isters": 8732,
      "Ġvot": 8733,
      "ĠComics": 8734,
      "Ġarmies": 8735,
      "zegovina": 8736,
      "rity": 8737,
      "Ġtomb": 8738,
      "Ġchance": 8739,
      "Ġsecure": 8740,
      "Ġflo": 8741,
      "Ġconstruct": 8742,
      "Ġfinds": 8743,
      "oria": 8744,
      "ĠFinn": 8745,
      "Ġcanon": 8746,
      "ĠAdrian": 8747,
      "1974": 8748,
      "ĠAgain": 8749,
      "ĠTherefore": 8750,
      "Ġactivist": 8751,
      "Ġimmediate": 8752,
      "ML": 8753,
      "zym": 8754,
      "endment": 8755,
      "flu": 8756,
      "ĠCommander": 8757,
      "Ġapply": 8758,
      "Ġstatue": 8759,
      "Ġ1890": 8760,
      "ĠMagazine": 8761,
      "ĠSimilar": 8762,
      "Ġarranged": 8763,
      "ĠAberdeen": 8764,
      "ĠLtd": 8765,
      "ivated": 8766,
      "agles": 8767,
      "Ġvision": 8768,
      "ĠAnal": 8769,
      "Ġtrained": 8770,
      "Ġdepicted": 8771,
      "Ġoriginated": 8772,
      "Ġfunds": 8773,
      "Ġpurchase": 8774,
      "ĠArgentina": 8775,
      "rary": 8776,
      "Äį": 8777,
      "leton": 8778,
      "ĠPed": 8779,
      "ĠDram": 8780,
      "ĠLyn": 8781,
      "ĠStra": 8782,
      "Ġcommit": 8783,
      "Ġequation": 8784,
      "Ġconcerned": 8785,
      "Ġmechanism": 8786,
      "rolled": 8787,
      "Ġchallenge": 8788,
      "Air": 8789,
      "mel": 8790,
      "isa": 8791,
      "ouver": 8792,
      "Ġtrig": 8793,
      "Ġprompt": 8794,
      "Ġpatterns": 8795,
      "Ġreplacement": 8796,
      "Ġbacteria": 8797,
      "Ġconventional": 8798,
      "Ġfictional": 8799,
      "ingly": 8800,
      "rogen": 8801,
      "ĠTan": 8802,
      "Ġreally": 8803,
      "ĠBey": 8804,
      "ifer": 8805,
      "Ġpartly": 8806,
      "1977": 8807,
      "Ġcompete": 8808,
      "Ġswitch": 8809,
      "ĠPatrick": 8810,
      "Ġdenomin": 8811,
      "ĠBronx": 8812,
      "fe": 8813,
      "hu": 8814,
      "ĠTel": 8815,
      "angle": 8816,
      "Ġthemes": 8817,
      "ĠAgric": 8818,
      "Ġexplicit": 8819,
      "Ġcircuit": 8820,
      "Ġunsuccess": 8821,
      "jection": 8822,
      "icon": 8823,
      "Ġeat": 8824,
      "ĠPoint": 8825,
      "Ġassum": 8826,
      "Ġdesigner": 8827,
      "ĠRegional": 8828,
      "Ġprofession": 8829,
      "ĠChildren": 8830,
      "herent": 8831,
      "Ġwitness": 8832,
      "Ġproof": 8833,
      "ultane": 8834,
      "Ġdisestab": 8835,
      "Ġmetres": 8836,
      "Ġgenerated": 8837,
      "Ġownership": 8838,
      "Ġrailroad": 8839,
      "Ġcrossing": 8840,
      "Ġcontributions": 8841,
      "Ġnominated": 8842,
      "Ġpicture": 8843,
      "ĠAmazon": 8844,
      "Ġnortheast": 8845,
      "://": 8846,
      "chers": 8847,
      "nie": 8848,
      "Ġhits": 8849,
      "adow": 8850,
      "idency": 8851,
      "erse": 8852,
      "ahn": 8853,
      "Ġcharges": 8854,
      "Ġwarm": 8855,
      "ĠBarcelona": 8856,
      "umentary": 8857,
      "Ġnorthwest": 8858,
      "ommod": 8859,
      "ĠMaryland": 8860,
      "aughters": 8861,
      "ĠGrant": 8862,
      "Ġuncertain": 8863,
      "Ġbes": 8864,
      "Ġbright": 8865,
      "Ġpig": 8866,
      "omes": 8867,
      "ido": 8868,
      "utor": 8869,
      "Ġpartially": 8870,
      "Ġexpensive": 8871,
      "Ġelectrons": 8872,
      "iya": 8873,
      "Ġgraphics": 8874,
      "EE": 8875,
      "orer": 8876,
      "Ġbishops": 8877,
      "ĠMember": 8878,
      "otte": 8879,
      "ĠReb": 8880,
      "Ġalleg": 8881,
      "Ġpreserved": 8882,
      "Ġlimits": 8883,
      "Ġoccupation": 8884,
      "Ġgrav": 8885,
      "ĠInstead": 8886,
      "84": 8887,
      "Disc": 8888,
      "Ġcricketer": 8889,
      "stances": 8890,
      "eland": 8891,
      "ĠRud": 8892,
      "ĠDiam": 8893,
      "ewhere": 8894,
      "ardo": 8895,
      "ipel": 8896,
      "ĠAlt": 8897,
      "Ġracial": 8898,
      "atters": 8899,
      "scale": 8900,
      "Ġgenre": 8901,
      "ĠCornwall": 8902,
      "uerto": 8903,
      "Military": 8904,
      "atus": 8905,
      "ĠSaf": 8906,
      "ĠTrib": 8907,
      "ĠNi": 8908,
      "Ġ39": 8909,
      "Ġ41": 8910,
      "Ġphon": 8911,
      "Ġanything": 8912,
      "Ġ1908": 8913,
      "Ġparticipate": 8914,
      "Christian": 8915,
      "Ġminimum": 8916,
      "Ġatmosphere": 8917,
      "Har": 8918,
      "gom": 8919,
      "Ġwrites": 8920,
      "1971": 8921,
      "Ġcovering": 8922,
      "Ġcontinuing": 8923,
      "Ġhundreds": 8924,
      "ĠEngineering": 8925,
      "Transport": 8926,
      "OC": 8927,
      "bach": 8928,
      "sal": 8929,
      "ĨĴ": 8930,
      "Ġaspir": 8931,
      "Ġconvention": 8932,
      "akia": 8933,
      "Ġeducated": 8934,
      "Ġlooking": 8935,
      "Ġutil": 8936,
      "Ġportrayed": 8937,
      "Ġopinion": 8938,
      "First": 8939,
      "mo": 8940,
      "Ġsurf": 8941,
      "Ġindustries": 8942,
      "Ġspacecraft": 8943,
      "ĠLaure": 8944,
      "DC": 8945,
      "gets": 8946,
      "Ġsend": 8947,
      "Ġfilled": 8948,
      "ĠType": 8949,
      "olly": 8950,
      "Ġvector": 8951,
      "ĠHistorical": 8952,
      "Ġsymbols": 8953,
      "Alex": 8954,
      "Cal": 8955,
      "Ġreducing": 8956,
      "cha": 8957,
      "Ġgirls": 8958,
      "ĠTheod": 8959,
      "ĠRang": 8960,
      "Ġstood": 8961,
      "Ġanime": 8962,
      "ĠJama": 8963,
      "Ġprogramme": 8964,
      "Ġcloser": 8965,
      "Ġloan": 8966,
      "Ġadaptation": 8967,
      "Ġcasual": 8968,
      "Ġphrase": 8969,
      "Ġfranchise": 8970,
      "bound": 8971,
      "ĠCra": 8972,
      "ĠMunicip": 8973,
      "abad": 8974,
      "ocation": 8975,
      "usted": 8976,
      "ĠDead": 8977,
      "Ġterror": 8978,
      "ĠApost": 8979,
      "Ġartistic": 8980,
      "Ġadmitted": 8981,
      "Ġtreaty": 8982,
      "Ġsafe": 8983,
      "Ġhyper": 8984,
      "Ste": 8985,
      "otional": 8986,
      "ĠFight": 8987,
      "ello": 8988,
      "Ġindex": 8989,
      "ĠAbout": 8990,
      "ĠEncyclop": 8991,
      "Ġexecution": 8992,
      "Spe": 8993,
      "Ġvs": 8994,
      "ordan": 8995,
      "iece": 8996,
      "Ġpartnership": 8997,
      "Ġcolors": 8998,
      "ĠAdmir": 8999,
      "ĠNova": 9000,
      "ĠBerkeley": 9001,
      "ĠMerc": 9002,
      "Ġaxi": 9003,
      "Ġexperimental": 9004,
      "EFA": 9005,
      "roc": 9006,
      "Ġ1000": 9007,
      "olph": 9008,
      "ĠMission": 9009,
      "Ġpref": 9010,
      "Ġinvited": 9011,
      "Ġaccommod": 9012,
      "ĠSpirit": 9013,
      "Ġsuccession": 9014,
      "Ġencod": 9015,
      "71": 9016,
      "Orig": 9017,
      "gon": 9018,
      "ÅĤ": 9019,
      "Ġid": 9020,
      "ĠTol": 9021,
      "ĠBeg": 9022,
      "ĠNick": 9023,
      "Ġsegment": 9024,
      "aware": 9025,
      "Ġprey": 9026,
      "azines": 9027,
      "Ġmoves": 9028,
      "ĠUpper": 9029,
      "Ġadults": 9030,
      "Ġaqu": 9031,
      "ĠAe": 9032,
      "Ġthing": 9033,
      "ĠHills": 9034,
      "ĠFC": 9035,
      "ĠKevin": 9036,
      "Ġouter": 9037,
      "Ġherself": 9038,
      "Ġdistinction": 9039,
      "Ġdoctor": 9040,
      "Ġentrance": 9041,
      "ĠHeritage": 9042,
      "Ġprovincial": 9043,
      "ĠPeninsula": 9044,
      "Ġmathematician": 9045,
      "ĠBahÃ¡Ê¼": 9046,
      "ori": 9047,
      "orous": 9048,
      "ĠTrad": 9049,
      "ĠIv": 9050,
      "that": 9051,
      "ĠGab": 9052,
      "Ġveter": 9053,
      "Ġintention": 9054,
      "Ġdiff": 9055,
      "ĠHerzegovina": 9056,
      "1969": 9057,
      "Ġconstitutional": 9058,
      "Ġtunnel": 9059,
      "ĠDigital": 9060,
      "tymology": 9061,
      "itudes": 9062,
      "Ġcourses": 9063,
      "ĠTa": 9064,
      "ĠBened": 9065,
      "Ġloyal": 9066,
      "cho": 9067,
      "ĠLanguage": 9068,
      "Ġsomeone": 9069,
      "Ġshel": 9070,
      "ĠOnline": 9071,
      "1973": 9072,
      "Ġdamaged": 9073,
      "Ġgods": 9074,
      "Ġopponent": 9075,
      "ĠHouston": 9076,
      "Ġere": 9077,
      "Ġtied": 9078,
      "ito": 9079,
      "ivate": 9080,
      "ĠLanc": 9081,
      "Ġagree": 9082,
      "Ġstruck": 9083,
      "Ġseek": 9084,
      "Ġtrend": 9085,
      "Ġplanet": 9086,
      "bes": 9087,
      "trans": 9088,
      "ÑĢ": 9089,
      "ĠCall": 9090,
      "ĠPra": 9091,
      "Ġheritage": 9092,
      "Ġruling": 9093,
      "Ġgrant": 9094,
      "Ġchess": 9095,
      "Ġconcepts": 9096,
      "ĠServices": 9097,
      "ĠRobin": 9098,
      "Ġdemonstrated": 9099,
      "ĠTestament": 9100,
      "ĠKelly": 9101,
      "Ġoverse": 9102,
      "otton": 9103,
      "ĠPir": 9104,
      "ntil": 9105,
      "assi": 9106,
      "ĠNewton": 9107,
      "Ġannually": 9108,
      "Ġpoison": 9109,
      "ĠGuide": 9110,
      "Ġidentical": 9111,
      "zo": 9112,
      "Ġ*": 9113,
      "Ġocean": 9114,
      "Ġcodes": 9115,
      "ĠKaz": 9116,
      "Ġcompound": 9117,
      "rows": 9118,
      "Ġmachines": 9119,
      "Ġconquest": 9120,
      "Ġbeauty": 9121,
      "Hung": 9122,
      "chest": 9123,
      "ĠCommunications": 9124,
      "Ġreturns": 9125,
      "ancouver": 9126,
      "Ġturns": 9127,
      "ĠACLU": 9128,
      "imensional": 9129,
      "aired": 9130,
      "din": 9131,
      "foot": 9132,
      "icular": 9133,
      "ĠFarm": 9134,
      "oven": 9135,
      "Ġregime": 9136,
      "ĠScient": 9137,
      "Ġfinishing": 9138,
      "Ġorganic": 9139,
      "ĠAgency": 9140,
      "Ġproducers": 9141,
      "Ġargues": 9142,
      "Ġnoble": 9143,
      "Ġregistered": 9144,
      "ĠFriedrich": 9145,
      "ĠAristotle": 9146,
      "Life": 9147,
      "pop": 9148,
      "ĠBeat": 9149,
      "Ġthin": 9150,
      "ĠIBM": 9151,
      "Ġplain": 9152,
      "ĠVik": 9153,
      "Ġconspir": 9154,
      "Ġsuperv": 9155,
      "ĠGreeks": 9156,
      "Ġphysician": 9157,
      "borough": 9158,
      "Ġphotograph": 9159,
      "Ġmorph": 9160,
      "73": 9161,
      "bus": 9162,
      "hr": 9163,
      "ĠIan": 9164,
      "uma": 9165,
      "ĠLev": 9166,
      "Ã©t": 9167,
      "raeli": 9168,
      "Ġuniversal": 9169,
      "ĠGraham": 9170,
      "ĠMatthew": 9171,
      "possible": 9172,
      "August": 9173,
      "cock": 9174,
      "later": 9175,
      "ĠSud": 9176,
      "ureau": 9177,
      "ĠPhoen": 9178,
      "ĠAugustine": 9179,
      "Ġtrading": 9180,
      "Ġinse": 9181,
      "Ġbat": 9182,
      "Ġbanned": 9183,
      "ĠCBS": 9184,
      "ĠBotswana": 9185,
      "ĠWorks": 9186,
      "ĠOrange": 9187,
      "ĠEdinburgh": 9188,
      "Ġbegun": 9189,
      "ĠRegister": 9190,
      "Ġdenied": 9191,
      "Ġlosses": 9192,
      "Ġhotel": 9193,
      "Ġcorner": 9194,
      "Ġfoss": 9195,
      "ĠCru": 9196,
      "Ġmaintenance": 9197,
      "ĠBoeing": 9198,
      "Ġinfluences": 9199,
      "Ġserial": 9200,
      "Ġsurrounded": 9201,
      "ĠFinland": 9202,
      "AA": 9203,
      "El": 9204,
      "Econom": 9205,
      "Ġdies": 9206,
      "iang": 9207,
      "ifican": 9208,
      "aren": 9209,
      "Ġorganisms": 9210,
      "Ġbusinesses": 9211,
      "Ġindicates": 9212,
      "ĠUkraine": 9213,
      "Ġdoctrine": 9214,
      "ificance": 9215,
      "82": 9216,
      "Ġsecretary": 9217,
      "Ġdoor": 9218,
      "ĠWho": 9219,
      "Ġinspir": 9220,
      "ĠAirlines": 9221,
      "Ġtempor": 9222,
      "Ġsolar": 9223,
      "ĠArtemis": 9224,
      "Ġlogic": 9225,
      "ĠTaiwan": 9226,
      "?\"": 9227,
      "Ġflying": 9228,
      "ĠSac": 9229,
      "ĠHas": 9230,
      "arta": 9231,
      "uba": 9232,
      "ipper": 9233,
      "Ġplayw": 9234,
      "Ġbuy": 9235,
      "anner": 9236,
      "Ġinvented": 9237,
      "ĠRoberts": 9238,
      "Ġconsistent": 9239,
      "Ġintegrated": 9240,
      "ĠâĪĴ": 9241,
      "Ġsubstance": 9242,
      "ĠBrigade": 9243,
      "Bur": 9244,
      "hop": 9245,
      "Ãł": 9246,
      "otan": 9247,
      "ĠRose": 9248,
      "ework": 9249,
      "ardens": 9250,
      "Ġresidence": 9251,
      "ĠAngola": 9252,
      "Ġfold": 9253,
      "roke": 9254,
      "utt": 9255,
      "Ġrecre": 9256,
      "Ġpublishing": 9257,
      "Ġvaries": 9258,
      "span": 9259,
      "Ġsolutions": 9260,
      "mediate": 9261,
      "Ġdifficulty": 9262,
      "Ġconnections": 9263,
      "Ġencouraged": 9264,
      "owntown": 9265,
      "Ġcul": 9266,
      "ĠRica": 9267,
      "ĠGene": 9268,
      "Ġshift": 9269,
      "Ġcontra": 9270,
      "Ġintent": 9271,
      "ussia": 9272,
      "ĠExpress": 9273,
      "Ġdrawing": 9274,
      "ĠAntonio": 9275,
      "Ġillegal": 9276,
      "Ġappropriate": 9277,
      "bel": 9278,
      "iest": 9279,
      "Ġcave": 9280,
      "Ġdiet": 9281,
      "rior": 9282,
      "Ġdisk": 9283,
      "Ġdisorders": 9284,
      "Ġaggreg": 9285,
      "lium": 9286,
      "Ġartificial": 9287,
      "Ġtelephone": 9288,
      "ĠSteel": 9289,
      "Ġmixture": 9290,
      "Ġeasy": 9291,
      "ĠVienna": 9292,
      "caster": 9293,
      "dale": 9294,
      "ashed": 9295,
      "ĠBou": 9296,
      "Ġabst": 9297,
      "Ġlocomot": 9298,
      "Ġacceler": 9299,
      "Ġpassage": 9300,
      "Ġverb": 9301,
      "ĠTerry": 9302,
      "Black": 9303,
      "Ġcrops": 9304,
      "Ġunusual": 9305,
      "gomery": 9306,
      "Ital": 9307,
      "hand": 9308,
      "pur": 9309,
      "anal": 9310,
      "icial": 9311,
      "asks": 9312,
      "Ġmob": 9313,
      "ĠAL": 9314,
      "ĠGi": 9315,
      "Ġchalleng": 9316,
      "ĠArn": 9317,
      "Ġinstructions": 9318,
[...]
